<unk>	0
<s>	0
</s>	0
▁t	-0
▁a	-1
he	-2
in	-3
▁the	-4
re	-5
on	-6
er	-7
nd	-8
▁o	-9
at	-10
▁s	-11
en	-12
▁c	-13
al	-14
es	-15
an	-16
it	-17
is	-18
ed	-19
▁w	-20
▁in	-21
or	-22
▁f	-23
▁p	-24
ar	-25
▁and	-26
▁of	-27
▁b	-28
ing	-29
ic	-30
▁"	-31
ion	-32
ro	-33
."	-34
as	-35
▁to	-36
▁m	-37
▁d	-38
ent	-39
le	-40
ou	-41
▁h	-42
ct	-43
il	-44
▁re	-45
▁e	-46
om	-47
ra	-48
ve	-49
st	-50
▁th	-51
▁n	-52
ur	-53
▁is	-54
ly	-55
▁S	-56
▁l	-57
am	-58
ation	-59
ce	-60
▁C	-61
et	-62
ch	-63
▁A	-64
▁for	-65
▁g	-66
id	-67
The	-68
ut	-69
im	-70
se	-71
ol	-72
ot	-73
ir	-74
ad	-75
▁M	-76
▁(	-77
▁I	-78
ver	-79
▁be	-80
▁as	-81
ig	-82
ul	-83
ith	-84
ter	-85
▁on	-86
▁B	-87
ate	-88
ow	-89
▁1	-90
▁with	-91
ment	-92
▁are	-93
▁by	-94
her	-95
▁u	-96
▁st	-97
ay	-98
▁pro	-99
▁P	-100
▁an	-101
el	-102
▁con	-103
▁or	-104
ag	-105
▁2	-106
ers	-107
th	-108
ab	-109
em	-110
▁wh	-111
▁v	-112
▁that	-113
▁al	-114
ist	-115
ere	-116
ies	-117
rom	-118
▁se	-119
▁com	-120
▁was	-121
iv	-122
qu	-123
od	-124
▁su	-125
▁G	-126
ity	-127
ort	-128
▁from	-129
est	-130
and	-131
um	-132
if	-133
▁de	-134
ive	-135
res	-136
ud	-137
ain	-138
▁it	-139
op	-140
ore	-141
▁at	-142
▁K	-143
▁he	-144
▁R	-145
ill	-146
ant	-147
▁ex	-148
ac	-149
oc	-150
▁r	-151
▁20	-152
pp	-153
ect	-154
ak	-155
un	-156
ia	-157
us	-158
ian	-159
ial	-160
▁T	-161
os	-162
▁Ind	-163
ces	-164
▁H	-165
du	-166
our	-167
▁N	-168
all	-169
nt	-170
▁D	-171
▁The	-172
av	-173
ri	-174
ical	-175
igh	-176
ld	-177
art	-178
ang	-179
▁inc	-180
ave	-181
ated	-182
ich	-183
▁not	-184
ions	-185
▁has	-186
gh	-187
hi	-188
▁E	-189
▁L	-190
har	-191
In	-192
ff	-193
▁F	-194
pl	-195
rou	-196
ure	-197
pt	-198
▁19	-199
ong	-200
port	-201
▁which	-202
ha	-203
per	-204
▁pl	-205
ous	-206
ther	-207
▁comp	-208
▁le	-209
ew	-210
ine	-211
ard	-212
ast	-213
rad	-214
▁ac	-215
▁im	-216
▁te	-217
ance	-218
red	-219
ric	-220
ult	-221
▁int	-222
og	-223
▁y	-224
▁have	-225
▁were	-226
""	-227
pe	-228
ru	-229
ach	-230
▁en	-231
ition	-232
▁J	-233
▁k	-234
age	-235
ass	-236
),	-237
▁O	-238
ish	-239
▁ad	-240
▁sh	-241
able	-242
so	-243
ord	-244
ations	-245
ber	-246
vel	-247
▁""	-248
ight	-249
▁W	-250
ess	-251
▁per	-252
iz	-253
lud	-254
▁go	-255
ank	-256
▁ag	-257
▁res	-258
con	-259
▁their	-260
ans	-261
ary	-262
ome	-263
ction	-264
▁India	-265
ik	-266
▁U	-267
ame	-268
ual	-269
▁all	-270
▁also	-271
ear	-272
ice	-273
tern	-274
▁whe	-275
erv	-276
▁app	-277
▁its	-278
▁includ	-279
ide	-280
▁ch	-281
▁this	-282
00	-283
ost	-284
ilm	-285
▁ab	-286
ence	-287
ount	-288
▁dis	-289
ap	-290
ry	-291
▁201	-292
▁other	-293
▁cont	-294
ge	-295
rit	-296
nder	-297
act	-298
ens	-299
ism	-300
ust	-301
ities	-302
▁comm	-303
▁part	-304
ok	-305
ign	-306
▁ar	-307
▁us	-308
▁can	-309
ue	-310
row	-311
ire	-312
ater	-313
ould	-314
▁who	-315
ational	-316
ub	-317
hed	-318
lic	-319
▁sc	-320
au	-321
we	-322
wo	-323
ase	-324
ors	-325
out	-326
▁cl	-327
lect	-328
▁film	-329
ath	-330
int	-331
▁Ch	-332
▁co	-333
▁un	-334
cess	-335
▁wor	-336
▁produ	-337
ari	-338
ell	-339
ree	-340
▁St	-341
▁pr	-342
ural	-343
rough	-344
uring	-345
▁such	-346
▁Indian	-347
ory	-348
▁ne	-349
ates	-350
irst	-351
vern	-352
▁bec	-353
▁but	-354
▁3	-355
ced	-356
▁me	-357
▁qu	-358
▁had	-359
▁cons	-360
ip	-361
ace	-362
ind	-363
orm	-364
▁ro	-365
ress	-366
▁his	-367
▁reg	-368
▁under	-369
▁j	-370
▁sp	-371
ular	-372
▁bet	-373
▁been	-374
▁first	-375
)."	-376
ark	-377
ood	-378
▁sy	-379
▁out	-380
▁form	-381
ble	-382
one	-383
▁off	-384
▁rec	-385
ative	-386
ah	-387
aj	-388
▁4	-389
▁ev	-390
▁acc	-391
▁eff	-392
▁two	-393
▁trad	-394
▁there	-395
ep	-396
ike	-397
low	-398
old	-399
ose	-400
▁ra	-401
▁one	-402
▁sub	-403
erson	-404
▁more	-405
vernment	-406
▁through	-407
ie	-408
▁5	-409
any	-410
ays	-411
rop	-412
▁so	-413
ween	-414
▁rel	-415
ments	-416
20	-417
ade	-418
ime	-419
▁As	-420
▁In	-421
▁do	-422
▁up	-423
ally	-424
cial	-425
ered	-426
olog	-427
▁ent	-428
▁ind	-429
▁inf	-430
▁will	-431
ack	-432
erm	-433
ied	-434
ple	-435
▁we	-436
ause	-437
fter	-438
ific	-439
ings	-440
ound	-441
▁ass	-442
▁pre	-443
▁rem	-444
▁over	-445
▁pres	-446
▁tour	-447
▁person	-448
▁between	-449
te	-450
ts	-451
▁V	-452
are	-453
iff	-454
ild	-455
now	-456
▁add	-457
velop	-458
▁serv	-459
aw	-460
ail	-461
enc	-462
ract	-463
stem	-464
▁act	-465
▁they	-466
hip	-467
ite	-468
oun	-469
conom	-470
▁like	-471
▁some	-472
▁including	-473
On	-474
hy	-475
ann	-476
end	-477
gan	-478
his	-479
ile	-480
rib	-481
▁am	-482
ough	-483
very	-484
▁any	-485
▁att	-486
▁des	-487
▁tem	-488
▁into	-489
▁them	-490
▁year	-491
▁after	-492
▁inter	-493
cc	-494
ey	-495
ise	-496
mer	-497
▁ob	-498
alth	-499
ased	-500
ents	-501
ject	-502
oint	-503
▁her	-504
round	-505
▁cent	-506
▁when	-507
▁develop	-508
ks	-509
ll	-510
oy	-511
up	-512
als	-513
ran	-514
▁no	-515
▁pe	-516
arch	-517
vers	-518
▁200	-519
▁fin	-520
▁med	-521
▁soc	-522
▁vari	-523
▁state	-524
▁these	-525
▁import	-526
19	-527
ef	-528
ake	-529
get	-530
led	-531
ram	-532
ron	-533
ute	-534
ved	-535
▁tr	-536
cent	-537
ever	-538
ists	-539
reat	-540
ures	-541
▁fore	-542
▁team	-543
▁State	-544
li	-545
chn	-546
ted	-547
ven	-548
▁Se	-549
▁sa	-550
ines	-551
ious	-552
land	-553
▁gen	-554
▁tra	-555
ality	-556
ility	-557
▁bank	-558
▁call	-559
▁diff	-560
▁grow	-561
▁made	-562
▁main	-563
▁mark	-564
▁play	-565
▁resp	-566
▁about	-567
▁count	-568
▁where	-569
▁government	-570
io	-571
▁7	-572
arn	-573
ash	-574
eld	-575
eng	-576
hes	-577
▁Ar	-578
ices	-579
stit	-580
vest	-581
▁199	-582
▁col	-583
▁dec	-584
▁pol	-585
ating	-586
ature	-587
▁high	-588
▁only	-589
▁econom	-590
2,	-591
wn	-592
ond	-593
oth	-594
ove	-595
▁En	-596
▁fi	-597
▁fl	-598
ange	-599
ards	-600
ctor	-601
ited	-602
ower	-603
ting	-604
▁Com	-605
▁cur	-606
▁hum	-607
▁you	-608
ision	-609
▁cour	-610
▁long	-611
▁peop	-612
▁used	-613
▁work	-614
illion	-615
▁while	-616
itional	-617
▁during	-618
▁system	-619
eg	-620
▁8	-621
▁Y	-622
iss	-623
les	-624
sel	-625
ury	-626
ages	-627
ames	-628
fore	-629
ient	-630
ives	-631
ruct	-632
tain	-633
▁exp	-634
▁him	-635
▁may	-636
▁use	-637
ident	-638
▁dist	-639
▁good	-640
▁prov	-641
▁time	-642
▁incre	-643
▁years	-644
▁market	-645
It	-646
ss	-647
ty	-648
▁Z	-649
ety	-650
iqu	-651
ium	-652
ock	-653
▁Un	-654
▁if	-655
ined	-656
▁own	-657
▁pos	-658
▁rad	-659
▁set	-660
▁wom	-661
ollow	-662
ublic	-663
▁cult	-664
▁each	-665
▁pass	-666
▁supp	-667
▁than	-668
▁effect	-669
ob	-670
su	-671
uc	-672
▁6	-673
arm	-674
ics	-675
own	-676
rap	-677
udd	-678
."""	-679
ases	-680
eral	-681
inem	-682
iron	-683
ived	-684
▁def	-685
▁end	-686
▁est	-687
▁mod	-688
▁mon	-689
▁new	-690
▁non	-691
▁ref	-692
ution	-693
▁know	-694
▁land	-695
▁lead	-696
atural	-697
owever	-698
▁organ	-699
▁would	-700
▁people	-701
▁include	-702
▁process	-703
ternational	-704
ai	-705
oh	-706
ti	-707
ug	-708
,""	-709
app	-710
hen	-711
ick	-712
iew	-713
man	-714
ons	-715
▁18	-716
▁De	-717
ants	-718
ised	-719
ouse	-720
▁che	-721
▁imp	-722
▁loc	-723
▁man	-724
▁occ	-725
▁spe	-726
▁val	-727
aving	-728
▁case	-729
▁char	-730
▁dire	-731
▁most	-732
▁oper	-733
▁prot	-734
▁again	-735
▁elect	-736
▁level	-737
▁trans	-738
▁water	-739
▁report	-740
▁differe	-741
▁product	-742
▁important	-743
mb	-744
ya	-745
cur	-746
der	-747
ins	-748
min	-749
ren	-750
ues	-751
▁Kh	-752
▁ca	-753
▁di	-754
ains	-755
angu	-756
cond	-757
ency	-758
ross	-759
vent	-760
▁202	-761
▁Med	-762
▁car	-763
▁ear	-764
▁rep	-765
▁sur	-766
aking	-767
ister	-768
other	-769
viron	-770
▁Port	-771
▁exam	-772
▁requ	-773
▁term	-774
itions	-775
▁areas	-776
▁being	-777
▁finan	-778
▁world	-779
▁commun	-780
▁follow	-781
▁partic	-782
▁provid	-783
▁public	-784
▁should	-785
▁social	-786
▁country	-787
vironment	-788
ci	-789
lp	-790
mp	-791
na	-792
pr	-793
amp	-794
ern	-795
oci	-796
ook	-797
ral	-798
uth	-799
▁12	-800
▁It	-801
▁bu	-802
▁op	-803
aken	-804
amil	-805
cept	-806
ense	-807
form	-808
ible	-809
ince	-810
orth	-811
reen	-812
ters	-813
▁aff	-814
▁cre	-815
▁equ	-816
▁par	-817
atory	-818
ences	-819
ually	-820
▁Budd	-821
▁many	-822
▁name	-823
▁rele	-824
▁well	-825
▁cinem	-826
▁exper	-827
▁human	-828
▁techn	-829
▁three	-830
▁women	-831
▁million	-832
▁natural	-833
▁present	-834
▁financial	-835
▁development	-836
gy	-837
ix	-838
la	-839
sh	-840
▁-	-841
Ind	-842
ata	-843
att	-844
ful	-845
hib	-846
ife	-847
tra	-848
▁15	-849
▁cr	-850
▁et	-851
ital	-852
ival	-853
ivid	-854
mber	-855
▁Eng	-856
▁det	-857
▁lar	-858
▁vis	-859
ather	-860
duced	-861
ected	-862
imate	-863
▁both	-864
▁crop	-865
▁help	-866
▁rate	-867
ection	-868
ources	-869
▁court	-870
▁field	-871
▁langu	-872
▁offic	-873
▁power	-874
▁those	-875
▁inform	-876
▁invest	-877
▁second	-878
▁because	-879
▁environment	-880
ft	-881
ib	-882
ara	-883
eds	-884
hav	-885
irc	-886
orn	-887
por	-888
ten	-889
▁An	-890
▁av	-891
▁aw	-892
This	-893
atic	-894
ched	-895
dust	-896
ffic	-897
harm	-898
ized	-899
ries	-900
road	-901
roup	-902
▁(19	-903
▁Act	-904
▁Con	-905
▁dom	-906
▁enc	-907
▁hig	-908
▁law	-909
▁mil	-910
▁min	-911
▁num	-912
▁pop	-913
ights	-914
▁Bank	-915
▁area	-916
▁conc	-917
▁conf	-918
▁rest	-919
▁sign	-920
ration	-921
▁activ	-922
▁films	-923
▁sever	-924
▁start	-925
However	-926
▁applic	-927
▁around	-928
▁called	-929
▁health	-930
ological	-931
▁percent	-932
▁tourism	-933
▁services	-934
▁different	-935
4,	-936
ee	-937
ev	-938
lu	-939
ov	-940
ani	-941
ats	-942
cil	-943
elf	-944
ged	-945
mit	-946
osp	-947
ote	-948
▁Ad	-949
▁Go	-950
▁Ma	-951
▁gr	-952
▁my	-953
▁sm	-954
here	-955
iter	-956
lear	-957
liam	-958
lish	-959
ober	-960
omes	-961
osed	-962
outh	-963
rand	-964
read	-965
rent	-966
▁198	-967
▁Min	-968
▁New	-969
▁Par	-970
▁bas	-971
▁cor	-972
▁del	-973
▁did	-974
▁etc	-975
▁net	-976
▁sal	-977
▁she	-978
▁str	-979
▁win	-980
annel	-981
ption	-982
▁2020	-983
▁Coun	-984
ilding	-985
ording	-986
▁allow	-987
▁among	-988
▁appro	-989
▁class	-990
▁point	-991
▁consid	-992
▁region	-993
▁sector	-994
▁Council	-995
▁account	-996
▁against	-997
▁several	-998
▁National	-999
6,	-1000
As	-1001
ax	-1002
yc	-1003
▁'	-1004
air	-1005
amb	-1006
ana	-1007
ars	-1008
aun	-1009
nce	-1010
the	-1011
ton	-1012
urn	-1013
▁Af	-1014
▁bl	-1015
▁gl	-1016
▁sw	-1017
ared	-1018
ason	-1019
aves	-1020
blem	-1021
chie	-1022
ingh	-1023
ired	-1024
orld	-1025
ploy	-1026
ring	-1027
self	-1028
▁197	-1029
▁Kum	-1030
▁Mah	-1031
▁adv	-1032
▁cap	-1033
▁dem	-1034
▁fac	-1035
▁ide	-1036
▁low	-1037
▁mat	-1038
▁obs	-1039
▁our	-1040
▁pat	-1041
▁pur	-1042
▁sol	-1043
erest	-1044
ering	-1045
ified	-1046
iness	-1047
ither	-1048
ority	-1049
verse	-1050
▁Brit	-1051
▁This	-1052
▁anim	-1053
▁ball	-1054
▁cred	-1055
▁fact	-1056
▁food	-1057
▁hand	-1058
▁make	-1059
▁prog	-1060
▁radi	-1061
▁rece	-1062
gether	-1063
ically	-1064
ission	-1065
ricult	-1066
▁March	-1067
▁World	-1068
▁banks	-1069
▁death	-1070
▁group	-1071
ilities	-1072
ization	-1073
stitute	-1074
▁before	-1075
▁cinema	-1076
▁comple	-1077
▁direct	-1078
▁growth	-1079
▁indust	-1080
▁current	-1081
▁foreign	-1082
▁problem	-1083
▁agricult	-1084
▁together	-1085
▁information	-1086
▁traditional	-1087
.1	-1088
0,	-1089
9,	-1090
eb	-1091
ec	-1092
go	-1093
me	-1094
xt	-1095
000	-1096
inc	-1097
its	-1098
ket	-1099
lev	-1100
ogn	-1101
rah	-1102
tic	-1103
und	-1104
uss	-1105
▁Ex	-1106
▁He	-1107
▁Is	-1108
▁Sh	-1109
▁US	-1110
▁bi	-1111
▁fe	-1112
▁hy	-1113
▁ty	-1114
▁ve	-1115
abor	-1116
ajor	-1117
enal	-1118
imes	-1119
iven	-1120
king	-1121
line	-1122
ling	-1123
ness	-1124
ples	-1125
▁And	-1126
▁Pro	-1127
▁Raj	-1128
▁arr	-1129
▁bre	-1130
▁day	-1131
▁ins	-1132
▁mar	-1133
▁mem	-1134
▁pot	-1135
▁saf	-1136
▁see	-1137
▁vol	-1138
ances	-1139
ished	-1140
ledge	-1141
ology	-1142
ounds	-1143
wards	-1144
▁data	-1145
▁even	-1146
▁heav	-1147
▁inst	-1148
▁poss	-1149
▁priv	-1150
▁said	-1151
▁sens	-1152
▁show	-1153
▁view	-1154
aining	-1155
atives	-1156
ential	-1157
inated	-1158
minist	-1159
▁Singh	-1160
▁achie	-1161
▁could	-1162
▁cover	-1163
▁every	-1164
▁found	-1165
▁gener	-1166
▁intro	-1167
istance	-1168
ividual	-1169
liament	-1170
▁became	-1171
▁number	-1172
▁temper	-1173
▁within	-1174
▁economy	-1175
▁example	-1176
▁quality	-1177
▁service	-1178
▁various	-1179
▁interest	-1180
▁national	-1181
▁products	-1182
▁Institute	-1183
▁individual	-1184
▁production	-1185
.,	-1186
1,	-1187
ex	-1188
acy	-1189
agn	-1190
ger	-1191
ges	-1192
ict	-1193
ier	-1194
ina	-1195
iod	-1196
ley	-1197
ney	-1198
pan	-1199
reg	-1200
tal	-1201
▁17	-1202
▁Ay	-1203
▁Sy	-1204
▁ed	-1205
▁em	-1206
duct	-1207
inal	-1208
ites	-1209
ning	-1210
ords	-1211
pend	-1212
▁Del	-1213
▁air	-1214
▁cro	-1215
▁few	-1216
▁foc	-1217
▁how	-1218
▁imm	-1219
▁ris	-1220
▁suc	-1221
These	-1222
ained	-1223
ently	-1224
estic	-1225
icals	-1226
ience	-1227
itual	-1228
meric	-1229
▁Cent	-1230
▁King	-1231
▁acqu	-1232
▁best	-1233
▁city	-1234
▁days	-1235
▁deep	-1236
▁disc	-1237
▁does	-1238
▁four	-1239
▁hist	-1240
▁init	-1241
▁must	-1242
▁near	-1243
▁open	-1244
▁outs	-1245
▁past	-1246
▁pric	-1247
▁prom	-1248
▁redu	-1249
▁same	-1250
▁self	-1251
▁then	-1252
▁writ	-1253
astern	-1254
curity	-1255
▁Mahar	-1256
▁avail	-1257
▁chang	-1258
▁const	-1259
▁early	-1260
▁goods	-1261
▁imple	-1262
▁large	-1263
▁local	-1264
▁plant	-1265
▁short	-1266
ability	-1267
▁become	-1268
▁contin	-1269
▁credit	-1270
▁former	-1271
▁having	-1272
▁observ	-1273
▁British	-1274
▁English	-1275
▁Medical	-1276
▁channel	-1277
▁support	-1278
▁approach	-1279
▁economic	-1280
▁relations	-1281
▁international	-1282
1.	-1283
7.	-1284
An	-1285
He	-1286
az	-1287
by	-1288
cy	-1289
ma	-1290
ph	-1291
va	-1292
▁&	-1293
▁9	-1294
aid	-1295
bai	-1296
dom	-1297
ene	-1298
ery	-1299
esh	-1300
ets	-1301
hap	-1302
ita	-1303
itt	-1304
itu	-1305
lam	-1306
lim	-1307
nam	-1308
oly	-1309
omm	-1310
ool	-1311
par	-1312
ras	-1313
rav	-1314
ule	-1315
ull	-1316
ung	-1317
use	-1318
▁13	-1319
▁BB	-1320
▁Co	-1321
▁Th	-1322
▁ph	-1323
ateg	-1324
bers	-1325
ebru	-1326
icro	-1327
ides	-1328
imil	-1329
lymp	-1330
obal	-1331
omet	-1332
rict	-1333
ried	-1334
rish	-1335
ront	-1336
utes	-1337
ward	-1338
▁May	-1339
▁Oct	-1340
▁abs	-1341
▁bal	-1342
▁cyc	-1343
▁deb	-1344
▁ele	-1345
▁ext	-1346
▁fre	-1347
▁men	-1348
▁opp	-1349
▁pay	-1350
▁ret	-1351
▁ter	-1352
▁war	-1353
▁way	-1354
aceut	-1355
acter	-1356
ining	-1357
isted	-1358
ively	-1359
iving	-1360
urved	-1361
▁Comp	-1362
▁Film	-1363
▁anti	-1364
▁arch	-1365
▁came	-1366
▁circ	-1367
▁desc	-1368
▁done	-1369
▁down	-1370
▁find	-1371
▁game	-1372
▁prof	-1373
▁real	-1374
▁role	-1375
▁soil	-1376
▁spir	-1377
▁vers	-1378
▁very	-1379
▁vill	-1380
encies	-1381
ousand	-1382
ricket	-1383
ternal	-1384
ularly	-1385
▁Buddh	-1386
▁Delhi	-1387
▁Febru	-1388
▁Games	-1389
▁Olymp	-1390
▁effic	-1391
▁enter	-1392
▁estab	-1393
▁great	-1394
▁influ	-1395
▁known	-1396
▁learn	-1397
▁major	-1398
▁means	-1399
▁north	-1400
▁occur	-1401
▁since	-1402
▁sport	-1403
▁taken	-1404
▁total	-1405
▁value	-1406
ination	-1407
▁Americ	-1408
▁associ	-1409
▁commer	-1410
▁design	-1411
▁either	-1412
▁export	-1413
▁forest	-1414
▁object	-1415
▁others	-1416
▁period	-1417
▁though	-1418
uthority	-1419
▁Ayurved	-1420
▁October	-1421
▁another	-1422
▁century	-1423
▁express	-1424
▁perform	-1425
▁players	-1426
▁popular	-1427
▁program	-1428
▁success	-1429
harmaceut	-1430
ification	-1431
▁February	-1432
▁Minister	-1433
▁administ	-1434
▁thousand	-1435
▁available	-1436
▁implement	-1437
▁knowledge	-1438
▁languages	-1439
▁Government	-1440
▁introduced	-1441
▁investment	-1442
▁relationship	-1443
0%	-1444
60	-1445
BI	-1446
SE	-1447
ck	-1448
gg	-1449
of	-1450
sc	-1451
sy	-1452
to	-1453
uj	-1454
▁Q	-1455
Acc	-1456
For	-1457
adi	-1458
ady	-1459
ama	-1460
cut	-1461
ean	-1462
enn	-1463
gar	-1464
gen	-1465
hys	-1466
idd	-1467
ikh	-1468
ily	-1469
iot	-1470
ira	-1471
ize	-1472
ler	-1473
let	-1474
ody	-1475
oor	-1476
oss	-1477
ray	-1478
ret	-1479
rid	-1480
rol	-1481
uch	-1482
uis	-1483
uro	-1484
wor	-1485
▁10	-1486
▁21	-1487
▁32	-1488
▁Ab	-1489
▁Al	-1490
▁Am	-1491
▁CE	-1492
▁II	-1493
▁Sp	-1494
▁ke	-1495
aced	-1496
aces	-1497
ails	-1498
akes	-1499
ayan	-1500
ceed	-1501
edic	-1502
emic	-1503
ergy	-1504
erve	-1505
ests	-1506
ians	-1507
ipal	-1508
ises	-1509
itiz	-1510
itor	-1511
ivil	-1512
ntil	-1513
ones	-1514
oura	-1515
resp	-1516
rica	-1517
used	-1518
▁Ass	-1519
▁Res	-1520
▁She	-1521
▁Zar	-1522
▁ann	-1523
▁bus	-1524
▁cal	-1525
▁dev	-1526
▁due	-1527
▁met	-1528
▁mot	-1529
▁now	-1530
▁sou	-1531
▁ste	-1532
▁tax	-1533
ached	-1534
acher	-1535
aring	-1536
asing	-1537
asion	-1538
ators	-1539
atter	-1540
ember	-1541
ength	-1542
lands	-1543
order	-1544
▁Char	-1545
▁Comm	-1546
▁Cour	-1547
▁Dece	-1548
▁Iran	-1549
▁Khan	-1550
▁Tour	-1551
▁cann	-1552
▁cond	-1553
▁conn	-1554
▁expl	-1555
▁fish	-1556
▁flow	-1557
▁gold	-1558
▁head	-1559
▁heat	-1560
▁held	-1561
▁issu	-1562
▁just	-1563
▁laun	-1564
▁life	-1565
▁live	-1566
▁orig	-1567
▁post	-1568
▁prim	-1569
▁prop	-1570
▁purp	-1571
▁repl	-1572
▁rice	-1573
▁risk	-1574
▁situ	-1575
▁spec	-1576
▁stud	-1577
▁thus	-1578
▁trop	-1579
▁what	-1580
During	-1581
ashtra	-1582
ensive	-1583
ention	-1584
ession	-1585
estern	-1586
itable	-1587
lished	-1588
rative	-1589
rishna	-1590
though	-1591
utions	-1592
▁based	-1593
▁citiz	-1594
▁crops	-1595
▁later	-1596
▁notes	-1597
▁penal	-1598
▁pract	-1599
▁price	-1600
▁princ	-1601
▁regul	-1602
▁relig	-1603
▁small	-1604
▁telev	-1605
▁trade	-1606
▁using	-1607
estival	-1608
ificant	-1609
ruction	-1610
▁Africa	-1611
▁United	-1612
▁across	-1613
▁change	-1614
▁common	-1615
▁compan	-1616
▁compar	-1617
▁comput	-1618
▁employ	-1619
▁energy	-1620
▁proper	-1621
▁result	-1622
▁states	-1623
▁Cricket	-1624
▁Krishna	-1625
▁concern	-1626
▁created	-1627
▁leading	-1628
▁project	-1629
▁started	-1630
▁systems	-1631
▁teacher	-1632
▁without	-1633
According	-1634
▁Ayurveda	-1635
▁December	-1636
▁building	-1637
▁domestic	-1638
▁followed	-1639
▁personal	-1640
▁problems	-1641
▁techniqu	-1642
▁commercial	-1643
▁considered	-1644
▁Maharashtra	-1645
▁agricultural	-1646
).	-1647
.6	-1648
DC	-1649
LI	-1650
bs	-1651
ji	-1652
my	-1653
rm	-1654
sp	-1655
aka	-1656
ams	-1657
ane	-1658
anu	-1659
che	-1660
chi	-1661
dis	-1662
equ	-1663
ert	-1664
ior	-1665
ird	-1666
ohn	-1667
ole	-1668
uly	-1669
une	-1670
uns	-1671
ush	-1672
uty	-1673
ves	-1674
▁1,	-1675
▁BC	-1676
▁Bh	-1677
▁Le	-1678
▁Or	-1679
▁Pr	-1680
▁Sa	-1681
▁Te	-1682
▁bo	-1683
▁ey	-1684
▁gu	-1685
▁km	-1686
▁lo	-1687
▁sk	-1688
▁sl	-1689
When	-1690
aged	-1691
alls	-1692
ball	-1693
hest	-1694
hief	-1695
hile	-1696
ials	-1697
ield	-1698
lies	-1699
mbol	-1700
most	-1701
orts	-1702
oses	-1703
ours	-1704
over	-1705
pril	-1706
rast	-1707
reme	-1708
rote	-1709
rust	-1710
semb	-1711
term	-1712
ties	-1713
unic	-1714
ured	-1715
▁Air	-1716
▁All	-1717
▁Cor	-1718
▁God	-1719
▁Sal	-1720
▁art	-1721
▁bro	-1722
▁dep	-1723
▁fun	-1724
▁inv	-1725
▁jud	-1726
▁leg	-1727
▁mer	-1728
▁nar	-1729
▁oil	-1730
▁old	-1731
▁sea	-1732
▁sec	-1733
▁sex	-1734
▁sha	-1735
▁vac	-1736
India	-1737
There	-1738
aches	-1739
angal	-1740
arent	-1741
aries	-1742
engal	-1743
erala	-1744
etent	-1745
idity	-1746
iency	-1747
ishad	-1748
itors	-1749
ivers	-1750
ories	-1751
ustra	-1752
▁Brah	-1753
▁John	-1754
▁Sans	-1755
▁Sept	-1756
▁away	-1757
▁back	-1758
▁book	-1759
▁camp	-1760
▁care	-1761
▁chem	-1762
▁comb	-1763
▁come	-1764
▁cuis	-1765
▁dest	-1766
▁goal	-1767
▁happ	-1768
▁mult	-1769
▁phys	-1770
▁rese	-1771
▁star	-1772
▁stat	-1773
▁test	-1774
▁upon	-1775
▁wide	-1776
ecting	-1777
idence	-1778
imilar	-1779
lected	-1780
resent	-1781
wealth	-1782
▁April	-1783
▁Asian	-1784
▁above	-1785
▁along	-1786
▁child	-1787
▁event	-1788
▁famil	-1789
▁fight	-1790
▁house	-1791
▁ident	-1792
▁light	-1793
▁liter	-1794
▁never	-1795
▁print	-1796
▁quest	-1797
▁react	-1798
▁right	-1799
▁until	-1800
ication	-1801
itation	-1802
olution	-1803
osphere	-1804
ructure	-1805
vention	-1806
▁Buddha	-1807
▁Kerala	-1808
▁Zarath	-1809
▁action	-1810
▁animal	-1811
▁cannot	-1812
▁commit	-1813
▁compos	-1814
▁consum	-1815
▁global	-1816
▁higher	-1817
▁itself	-1818
▁mainly	-1819
▁networ	-1820
▁played	-1821
▁rights	-1822
▁screen	-1823
▁symbol	-1824
▁temple	-1825
▁travel	-1826
chnology	-1827
▁achieve	-1828
▁allowed	-1829
▁appoint	-1830
▁balance	-1831
▁conflic	-1832
▁distrib	-1833
▁encoura	-1834
▁highest	-1835
▁members	-1836
▁outside	-1837
▁private	-1838
▁require	-1839
▁respect	-1840
▁usually	-1841
▁activity	-1842
▁citizens	-1843
▁cultural	-1844
▁industry	-1845
▁maintain	-1846
▁received	-1847
▁research	-1848
▁tourists	-1849
▁September	-1850
▁character	-1851
▁companies	-1852
▁potential	-1853
▁providing	-1854
▁resources	-1855
▁tradition	-1856
▁Parliament	-1857
▁additional	-1858
▁facilities	-1859
▁increasing	-1860
▁techniques	-1861
▁Zarathustra	-1862
▁communities	-1863
▁temperature	-1864
harmaceuticals	-1865
▁International	-1866
10	-1867
3,	-1868
5%	-1869
5,	-1870
7,	-1871
AI	-1872
Al	-1873
If	-1874
LL	-1875
PL	-1876
SN	-1877
Th	-1878
ka	-1879
kh	-1880
mm	-1881
ne	-1882
tt	-1883
wh	-1884
-19	-1885
ale	-1886
aly	-1887
aya	-1888
bed	-1889
cer	-1890
day	-1891
irm	-1892
isl	-1893
iya	-1894
jun	-1895
lad	-1896
ner	-1897
oid	-1898
oon	-1899
ope	-1900
ots	-1901
oys	-1902
pro	-1903
rab	-1904
raw	-1905
rim	-1906
see	-1907
uck	-1908
ume	-1909
val	-1910
yle	-1911
▁(1	-1912
▁(2	-1913
▁(3	-1914
▁22	-1915
▁5,	-1916
▁Bi	-1917
▁Hy	-1918
▁dr	-1919
▁dy	-1920
▁el	-1921
▁ep	-1922
▁er	-1923
▁li	-1924
▁vi	-1925
abha	-1926
ague	-1927
arat	-1928
ault	-1929
cing	-1930
empt	-1931
ened	-1932
enef	-1933
erts	-1934
hern	-1935
hold	-1936
ided	-1937
iers	-1938
iety	-1939
illi	-1940
ills	-1941
inch	-1942
itud	-1943
krit	-1944
less	-1945
onse	-1946
ored	-1947
ream	-1948
reet	-1949
rove	-1950
sequ	-1951
uled	-1952
vere	-1953
view	-1954
year	-1955
▁193	-1956
▁195	-1957
▁BBC	-1958
▁Cal	-1959
▁Can	-1960
▁Cup	-1961
▁Dis	-1962
▁Gur	-1963
▁Hin	-1964
▁Mad	-1965
▁Man	-1966
▁Mod	-1967
▁Moh	-1968
▁Mum	-1969
▁Pak	-1970
▁Pol	-1971
▁Ram	-1972
▁Reg	-1973
▁Sci	-1974
▁Sub	-1975
▁atm	-1976
▁aud	-1977
▁bar	-1978
▁der	-1979
▁dig	-1980
▁fam	-1981
▁fil	-1982
▁fut	-1983
▁get	-1984
▁hal	-1985
▁lim	-1986
▁mus	-1987
▁mut	-1988
▁pet	-1989
▁reb	-1990
▁six	-1991
▁typ	-1992
▁vir	-1993
▁vul	-1994
▁wat	-1995
▁won	-1996
While	-1997
andid	-1998
anned	-1999
iment	-2000
inion	-2001
istan	-2002
itage	-2003
itive	-2004
ockey	-2005
ograp	-2006
thern	-2007
thing	-2008
ugust	-2009
urope	-2010
▁2014	-2011
▁Gang	-2012
▁July	-2013
▁Nove	-2014
▁Prad	-2015
▁Sikh	-2016
▁cell	-2017
▁coun	-2018
▁crit	-2019
▁date	-2020
▁dise	-2021
▁disp	-2022
▁ever	-2023
▁farm	-2024
▁fast	-2025
▁five	-2026
▁full	-2027
▁hard	-2028
▁harm	-2029
▁hund	-2030
▁keep	-2031
▁liqu	-2032
▁meas	-2033
▁pain	-2034
▁path	-2035
▁perf	-2036
▁perm	-2037
▁prec	-2038
▁rain	-2039
▁sent	-2040
▁sequ	-2041
▁text	-2042
▁turn	-2043
▁vacc	-2044
▁ways	-2045
▁wood	-2046
▁word	-2047
▁your	-2048
action	-2049
alling	-2050
ension	-2051
erence	-2052
inally	-2053
isions	-2054
isting	-2055
mitted	-2056
rought	-2057
sembly	-2058
uments	-2059
urther	-2060
▁China	-2061
▁Court	-2062
▁House	-2063
▁Kumar	-2064
▁Sabha	-2065
▁Sahib	-2066
▁South	-2067
▁Tamil	-2068
▁There	-2069
▁agree	-2070
▁basis	-2071
▁brand	-2072
▁broad	-2073
▁categ	-2074
▁cause	-2075
▁crore	-2076
▁demon	-2077
▁forms	-2078
▁ideas	-2079
▁indic	-2080
▁initi	-2081
▁mater	-2082
▁model	-2083
▁needs	-2084
▁parts	-2085
▁radio	-2086
▁reach	-2087
▁reven	-2088
▁separ	-2089
▁seven	-2090
▁stand	-2091
▁still	-2092
▁terms	-2093
▁times	-2094
▁today	-2095
▁treat	-2096
▁veget	-2097
▁wrote	-2098
agement	-2099
igation	-2100
orthern	-2101
ulation	-2102
▁Bengal	-2103
▁Common	-2104
▁Europe	-2105
▁Mumbai	-2106
▁accept	-2107
▁attack	-2108
▁candid	-2109
▁cultiv	-2110
▁enough	-2111
▁experi	-2112
▁famous	-2113
▁helped	-2114
▁making	-2115
▁nature	-2116
▁necess	-2117
▁online	-2118
▁points	-2119
▁police	-2120
▁recogn	-2121
▁record	-2122
▁reduce	-2123
▁remote	-2124
▁ritual	-2125
▁season	-2126
▁strong	-2127
▁supply	-2128
▁territ	-2129
poration	-2130
▁Kingdom	-2131
▁Pradesh	-2132
▁attract	-2133
▁becomes	-2134
▁billion	-2135
▁brought	-2136
▁capital	-2137
▁company	-2138
▁conduct	-2139
▁cuisine	-2140
▁hearing	-2141
▁history	-2142
▁hundred	-2143
▁opinion	-2144
▁parties	-2145
▁penalty	-2146
▁reached	-2147
▁sources	-2148
▁tourist	-2149
▁working	-2150
aboratory	-2151
▁November	-2152
▁Sanskrit	-2153
▁compared	-2154
▁includes	-2155
▁increase	-2156
▁language	-2157
▁launched	-2158
▁observed	-2159
▁occasion	-2160
▁passport	-2161
▁physical	-2162
▁produced	-2163
▁reported	-2164
▁required	-2165
▁response	-2166
▁security	-2167
▁surround	-2168
▁Authority	-2169
▁countries	-2170
▁developed	-2171
▁generally	-2172
▁increased	-2173
▁remaining	-2174
▁activities	-2175
▁conditions	-2176
▁efficiency	-2177
▁television	-2178
▁application	-2179
▁established	-2180
▁significant	-2181
▁Commonwealth	-2182
▁particularly	-2183
$2	-2184
.0	-2185
.4	-2186
.7	-2187
14	-2188
9%	-2189
AR	-2190
DP	-2191
EE	-2192
II	-2193
RE	-2194
SS	-2195
To	-2196
bo	-2197
cl	-2198
dy	-2199
ga	-2200
gi	-2201
za	-2202
▁X	-2203
"",	-2204
00,	-2205
Bec	-2206
SNL	-2207
agh	-2208
apt	-2209
ban	-2210
cal	-2211
com	-2212
eal	-2213
ees	-2214
elt	-2215
eur	-2216
gin	-2217
icy	-2218
ify	-2219
ila	-2220
irl	-2221
kar	-2222
lin	-2223
ode	-2224
oke	-2225
ols	-2226
osy	-2227
oud	-2228
rep	-2229
rug	-2230
str	-2231
sue	-2232
tee	-2233
uel	-2234
uit	-2235
urk	-2236
▁11	-2237
▁16	-2238
▁28	-2239
▁35	-2240
▁Bu	-2241
▁Cl	-2242
▁Me	-2243
▁Mu	-2244
▁Ph	-2245
▁Pl	-2246
▁Rs	-2247
▁ce	-2248
▁cm	-2249
▁es	-2250
▁jo	-2251
▁ur	-2252
Some	-2253
They	-2254
abad	-2255
abel	-2256
ably	-2257
ales	-2258
aman	-2259
amet	-2260
anch	-2261
anda	-2262
anta	-2263
anty	-2264
arks	-2265
augh	-2266
cast	-2267
conn	-2268
cont	-2269
etic	-2270
face	-2271
fall	-2272
gypt	-2273
hava	-2274
iles	-2275
inct	-2276
indi	-2277
inds	-2278
iple	-2279
itya	-2280
iver	-2281
juna	-2282
know	-2283
lied	-2284
ming	-2285
ners	-2286
olec	-2287
oney	-2288
pect	-2289
play	-2290
pple	-2291
quir	-2292
rate	-2293
rmal	-2294
ster	-2295
tery	-2296
ules	-2297
uous	-2298
vert	-2299
▁196	-2300
▁Ash	-2301
▁BCE	-2302
▁Bar	-2303
▁Cha	-2304
▁Jap	-2305
▁Mal	-2306
▁Mar	-2307
▁Nag	-2308
▁Off	-2309
▁Sam	-2310
▁Sep	-2311
▁Sup	-2312
▁Val	-2313
▁aid	-2314
▁aim	-2315
▁arg	-2316
▁big	-2317
▁bom	-2318
▁cha	-2319
▁div	-2320
▁dou	-2321
▁ens	-2322
▁ess	-2323
▁far	-2324
▁fat	-2325
▁fav	-2326
▁fru	-2327
▁gas	-2328
▁gre	-2329
▁har	-2330
▁hot	-2331
▁hyd	-2332
▁ill	-2333
▁lay	-2334
▁mix	-2335
▁mom	-2336
▁mov	-2337
▁nut	-2338
▁opt	-2339
▁pow	-2340
▁pri	-2341
▁saw	-2342
▁sch	-2343
▁seg	-2344
▁sil	-2345
▁syn	-2346
▁tar	-2347
▁ten	-2348
▁top	-2349
▁ult	-2350
▁wee	-2351
Other	-2352
Since	-2353
andra	-2354
anted	-2355
arian	-2356
ended	-2357
epend	-2358
iance	-2359
icial	-2360
illed	-2361
ising	-2362
istic	-2363
itect	-2364
itude	-2365
light	-2366
lying	-2367
oring	-2368
ranth	-2369
riage	-2370
riend	-2371
shore	-2372
stood	-2373
ticle	-2374
uslim	-2375
vered	-2376
vious	-2377
▁1997	-2378
▁2006	-2379
▁Asia	-2380
▁Conf	-2381
▁Germ	-2382
▁Hong	-2383
▁Janu	-2384
▁Serv	-2385
▁Shri	-2386
▁Upan	-2387
▁biom	-2388
▁body	-2389
▁bran	-2390
▁card	-2391
▁coll	-2392
▁doct	-2393
▁fuel	-2394
▁half	-2395
▁home	-2396
▁king	-2397
▁line	-2398
▁mach	-2399
▁mass	-2400
▁mean	-2401
▁milk	-2402
▁mill	-2403
▁much	-2404
▁news	-2405
▁next	-2406
▁poll	-2407
▁root	-2408
▁seen	-2409
▁shop	-2410
▁side	-2411
▁sold	-2412
▁stop	-2413
▁sugg	-2414
▁sust	-2415
▁take	-2416
▁tell	-2417
▁took	-2418
▁trib	-2419
▁type	-2420
▁uses	-2421
▁whom	-2422
▁wind	-2423
▁youn	-2424
Taking	-2425
iments	-2426
itical	-2427
ussian	-2428
▁2012,	-2429
▁2014,	-2430
▁2022,	-2431
▁Egypt	-2432
▁Hyder	-2433
▁North	-2434
▁Willi	-2435
▁benef	-2436
▁blood	-2437
▁break	-2438
▁chief	-2439
▁civil	-2440
▁clear	-2441
▁coast	-2442
▁compl	-2443
▁cycle	-2444
▁disci	-2445
▁equal	-2446
▁estim	-2447
▁exist	-2448
▁focus	-2449
▁front	-2450
▁given	-2451
▁heavy	-2452
▁hours	-2453
▁issue	-2454
▁medal	-2455
▁media	-2456
▁medic	-2457
▁micro	-2458
▁molec	-2459
▁often	-2460
▁order	-2461
▁party	-2462
▁quick	-2463
▁sense	-2464
▁teams	-2465
▁throw	-2466
▁tract	-2467
▁train	-2468
Because	-2469
ameters	-2470
ctional	-2471
ibility	-2472
▁Arjuna	-2473
▁August	-2474
▁Granth	-2475
▁Kumari	-2476
▁States	-2477
▁altern	-2478
▁amount	-2479
▁better	-2480
▁circum	-2481
▁compet	-2482
▁conver	-2483
▁determ	-2484
▁family	-2485
▁father	-2486
▁future	-2487
▁govern	-2488
▁ground	-2489
▁hockey	-2490
▁inquir	-2491
▁interp	-2492
▁length	-2493
▁moment	-2494
▁plants	-2495
▁rather	-2496
▁recent	-2497
▁safety	-2498
▁spread	-2499
▁stress	-2500
▁therap	-2501
▁threat	-2502
▁widely	-2503
Although	-2504
fficient	-2505
▁Central	-2506
▁January	-2507
▁Mohanty	-2508
▁Olympic	-2509
▁Section	-2510
▁Supreme	-2511
▁Tourism	-2512
▁Western	-2513
▁address	-2514
▁applied	-2515
▁asserts	-2516
▁attempt	-2517
▁beaches	-2518
▁brother	-2519
▁changes	-2520
▁classes	-2521
▁contain	-2522
▁describ	-2523
▁details	-2524
▁edition	-2525
▁efforts	-2526
▁entered	-2527
▁forests	-2528
▁general	-2529
▁however	-2530
▁improve	-2531
▁markets	-2532
▁medical	-2533
▁officer	-2534
▁operate	-2535
▁organic	-2536
▁payment	-2537
▁persons	-2538
▁primary	-2539
▁purpose	-2540
▁reduced	-2541
▁related	-2542
▁release	-2543
▁respond	-2544
▁similar	-2545
▁species	-2546
▁thermal	-2547
▁towards	-2548
▁variety	-2549
ructuring	-2550
▁American	-2551
▁Building	-2552
▁business	-2553
▁conflict	-2554
▁consider	-2555
▁contains	-2556
▁cultures	-2557
▁decision	-2558
▁directly	-2559
▁festival	-2560
▁particip	-2561
▁presence	-2562
▁protests	-2563
▁provided	-2564
▁question	-2565
▁releases	-2566
▁southern	-2567
▁tropical	-2568
▁villages	-2569
▁Competent	-2570
▁Upanishad	-2571
▁according	-2572
▁agreement	-2573
▁architect	-2574
▁candidate	-2575
▁following	-2576
▁influence	-2577
▁necessary	-2578
▁presented	-2579
▁religious	-2580
▁represent	-2581
▁therefore	-2582
▁thousands	-2583
rastructure	-2584
▁Technology	-2585
▁management	-2586
▁permission	-2587
▁properties	-2588
▁Corporation	-2589
▁comparative	-2590
▁initiatives	-2591
▁performance	-2592
▁applications	-2593
▁environmental	-2594
▁restructuring	-2595
▁administration	-2596
)(	-2597
.5	-2598
76	-2599
?"	-2600
AN	-2601
At	-2602
CC	-2603
GA	-2604
ME	-2605
NA	-2606
RO	-2607
Un	-2608
fs	-2609
ih	-2610
ju	-2611
ke	-2612
oo	-2613
ta	-2614
uv	-2615
vi	-2616
-20	-2617
1."	-2618
4),	-2619
Bef	-2620
His	-2621
Kwh	-2622
LLW	-2623
She	-2624
aba	-2625
ada	-2626
adu	-2627
ahe	-2628
akh	-2629
ala	-2630
aur	-2631
ctu	-2632
ech	-2633
eth	-2634
for	-2635
han	-2636
hat	-2637
hel	-2638
hem	-2639
het	-2640
hic	-2641
hra	-2642
hya	-2643
ida	-2644
ika	-2645
ipl	-2646
isc	-2647
isd	-2648
jan	-2649
off	-2650
oll	-2651
ony	-2652
oot	-2653
oph	-2654
ows	-2655
pee	-2656
put	-2657
sid	-2658
uls	-2659
vic	-2660
way	-2661
zer	-2662
▁14	-2663
▁25	-2664
▁Dr	-2665
▁Ed	-2666
▁Fl	-2667
▁Gh	-2668
▁Gu	-2669
▁Ko	-2670
▁Mc	-2671
▁My	-2672
▁Sw	-2673
▁We	-2674
▁ec	-2675
▁ge	-2676
▁ir	-2677
▁ru	-2678
2019	-2679
Once	-2680
With	-2681
aign	-2682
aker	-2683
amed	-2684
anas	-2685
anks	-2686
arty	-2687
asth	-2688
athe	-2689
athy	-2690
born	-2691
char	-2692
chor	-2693
fact	-2694
fers	-2695
ghal	-2696
ghan	-2697
ging	-2698
grad	-2699
havi	-2700
hips	-2701
hite	-2702
ildl	-2703
isms	-2704
izes	-2705
like	-2706
ocon	-2707
ogic	-2708
omic	-2709
oper	-2710
osis	-2711
pass	-2712
rade	-2713
raft	-2714
rary	-2715
rine	-2716
rist	-2717
riya	-2718
such	-2719
unji	-2720
ving	-2721
ways	-2722
wood	-2723
▁192	-2724
▁500	-2725
▁Ang	-2726
▁Ant	-2727
▁BSE	-2728
▁Bay	-2729
▁CLI	-2730
▁CSS	-2731
▁Das	-2732
▁Dep	-2733
▁GDP	-2734
▁Gas	-2735
▁Gen	-2736
▁Guj	-2737
▁Har	-2738
▁Kam	-2739
▁Leg	-2740
▁Lok	-2741
▁Mag	-2742
▁Mon	-2743
▁Pun	-2744
▁Rev	-2745
▁Sah	-2746
▁San	-2747
▁Spe	-2748
▁Sri	-2749
▁age	-2750
▁anc	-2751
▁aqu	-2752
▁ath	-2753
▁ban	-2754
▁bor	-2755
▁cat	-2756
▁cot	-2757
▁cup	-2758
▁don	-2759
▁emp	-2760
▁eye	-2761
▁fed	-2762
▁fem	-2763
▁flu	-2764
▁god	-2765
▁jur	-2766
▁let	-2767
▁map	-2768
▁mas	-2769
▁mic	-2770
▁neg	-2771
▁nuc	-2772
▁pan	-2773
▁psy	-2774
▁put	-2775
▁rat	-2776
▁run	-2777
▁san	-2778
▁sen	-2779
▁tre	-2780
▁tri	-2781
▁uns	-2782
▁vap	-2783
0,000	-2784
amber	-2785
anked	-2786
arily	-2787
arnat	-2788
asons	-2789
atell	-2790
ately	-2791
attle	-2792
beral	-2793
celer	-2794
chiat	-2795
cutta	-2796
disha	-2797
emper	-2798
enced	-2799
ening	-2800
enous	-2801
ental	-2802
harat	-2803
ially	-2804
icate	-2805
icult	-2806
iding	-2807
ieces	-2808
ients	-2809
iller	-2810
inese	-2811
ingle	-2812
itled	-2813
izing	-2814
liest	-2815
obert	-2816
odies	-2817
ompan	-2818
ounty	-2819
oured	-2820
ouses	-2821
ready	-2822
rency	-2823
ridge	-2824
rogen	-2825
ronic	-2826
rying	-2827
stems	-2828
ummer	-2829
under	-2830
usive	-2831
ustom	-2832
▁(191	-2833
▁1971	-2834
▁1994	-2835
▁2016	-2836
▁Army	-2837
▁Aust	-2838
▁BSNL	-2839
▁Bagh	-2840
▁Bang	-2841
▁Bhag	-2842
▁Cher	-2843
▁Gree	-2844
▁High	-2845
▁Kcal	-2846
▁Kong	-2847
▁Oper	-2848
▁Pand	-2849
▁Pass	-2850
▁Soci	-2851
▁Turk	-2852
▁base	-2853
▁beat	-2854
▁cogn	-2855
▁cost	-2856
▁debt	-2857
▁died	-2858
▁drug	-2859
▁duty	-2860
▁educ	-2861
▁felt	-2862
▁free	-2863
▁gave	-2864
▁grid	-2865
▁hosp	-2866
▁host	-2867
▁less	-2868
▁list	-2869
▁look	-2870
▁loss	-2871
▁lost	-2872
▁mank	-2873
▁mere	-2874
▁need	-2875
▁once	-2876
▁paid	-2877
▁phot	-2878
▁plan	-2879
▁pure	-2880
▁rare	-2881
▁read	-2882
▁rich	-2883
▁room	-2884
▁rule	-2885
▁send	-2886
▁shar	-2887
▁shif	-2888
▁sole	-2889
▁song	-2890
▁stri	-2891
▁subd	-2892
▁unre	-2893
▁vent	-2894
▁wave	-2895
Before	-2896
Indian	-2897
abeled	-2898
antage	-2899
econom	-2900
isdict	-2901
making	-2902
oconut	-2903
orders	-2904
reneur	-2905
rition	-2906
ternet	-2907
urance	-2908
vation	-2909
▁2010,	-2910
▁2020,	-2911
▁Amrit	-2912
▁Ashok	-2913
▁Caves	-2914
▁Hindi	-2915
▁Hindu	-2916
▁Offic	-2917
▁These	-2918
▁Union	-2919
▁absor	-2920
▁added	-2921
▁agent	-2922
▁alloc	-2923
▁bhava	-2924
▁block	-2925
▁cases	-2926
▁caves	-2927
▁close	-2928
▁cloud	-2929
▁colle	-2930
▁cross	-2931
▁deeds	-2932
▁devot	-2933
▁diagn	-2934
▁ecosy	-2935
▁eleph	-2936
▁exhib	-2937
▁filed	-2938
▁flour	-2939
▁frequ	-2940
▁glass	-2941
▁green	-2942
▁gross	-2943
▁hence	-2944
▁integ	-2945
▁joint	-2946
▁kinds	-2947
▁lower	-2948
▁match	-2949
▁money	-2950
▁month	-2951
▁music	-2952
▁named	-2953
▁novel	-2954
▁parad	-2955
▁place	-2956
▁plays	-2957
▁press	-2958
▁range	-2959
▁ready	-2960
▁recip	-2961
▁refer	-2962
▁rupee	-2963
▁scene	-2964
▁secur	-2965
▁sound	-2966
▁south	-2967
▁stage	-2968
▁subst	-2969
▁takes	-2970
▁third	-2971
▁truth	-2972
▁union	-2973
▁urban	-2974
▁virus	-2975
▁wheat	-2976
▁white	-2977
▁woman	-2978
▁words	-2979
▁young	-2980
century	-2981
ildlife	-2982
imately	-2983
isation	-2984
isition	-2985
rapunji	-2986
ription	-2987
tenance	-2988
version	-2989
▁Afghan	-2990
▁Bharat	-2991
▁Disney	-2992
▁Karnat	-2993
▁League	-2994
▁Mangal	-2995
▁Muslim	-2996
▁Office	-2997
▁Robert	-2998
▁Sepoys	-2999
▁active	-3000
▁affair	-3001
▁almost	-3002
▁announ	-3003
▁appear	-3004
▁attrib	-3005
▁battle	-3006
▁behavi	-3007
▁border	-3008
▁borrow	-3009
▁caitya	-3010
▁caused	-3011
▁center	-3012
▁centre	-3013
▁cities	-3014
▁clause	-3015
▁colour	-3016
▁contem	-3017
▁cooper	-3018
▁cotton	-3019
▁critic	-3020
▁custom	-3021
▁deline	-3022
▁digest	-3023
▁entrep	-3024
▁events	-3025
▁expand	-3026
▁expert	-3027
▁fields	-3028
▁forces	-3029
▁heaven	-3030
▁highly	-3031
▁histor	-3032
▁impact	-3033
▁income	-3034
▁instit	-3035
▁issued	-3036
▁levels	-3037
▁modern	-3038
▁mostly	-3039
▁namely	-3040
▁occurs	-3041
▁passed	-3042
▁places	-3043
▁policy	-3044
▁pounds	-3045
▁radiol	-3046
▁regard	-3047
▁remain	-3048
▁remitt	-3049
▁retail	-3050
▁satell	-3051
▁scient	-3052
▁secret	-3053
▁select	-3054
▁sexual	-3055
▁single	-3056
▁spirit	-3057
▁status	-3058
▁tempor	-3059
▁varies	-3060
▁visual	-3061
▁vulner	-3062
▁weight	-3063
▁winter	-3064
inations	-3065
islative	-3066
▁America	-3067
▁Brahman	-3068
▁Chamber	-3069
▁Chinese	-3070
▁Eastern	-3071
▁Gujarat	-3072
▁Rajasth	-3073
▁Russian	-3074
▁Society	-3075
▁William	-3076
▁already	-3077
▁banking	-3078
▁central	-3079
▁charges	-3080
▁climate	-3081
▁coconut	-3082
▁collect	-3083
▁confirm	-3084
▁connect	-3085
▁content	-3086
▁control	-3087
▁counter	-3088
▁derived	-3089
▁eastern	-3090
▁effects	-3091
▁elected	-3092
▁exports	-3093
▁factors	-3094
▁falling	-3095
▁further	-3096
▁greater	-3097
▁growing	-3098
▁islands	-3099
▁justice	-3100
▁liberal	-3101
▁located	-3102
▁mankind	-3103
▁monitor	-3104
▁nuclear	-3105
▁pension	-3106
▁planned	-3107
▁printed	-3108
▁proceed	-3109
▁reflect	-3110
▁replace	-3111
▁respons	-3112
▁revenue	-3113
▁segment	-3114
▁sensing	-3115
▁society	-3116
▁special	-3117
▁station	-3118
▁suggest	-3119
▁surface	-3120
▁sustain	-3121
▁temples	-3122
▁therapy	-3123
▁trading	-3124
▁village	-3125
▁whereas	-3126
▁workers	-3127
abilities	-3128
▁Assembly	-3129
▁Buddhism	-3130
▁Calcutta	-3131
▁European	-3132
▁Sciences	-3133
▁Security	-3134
▁accident	-3135
▁accompan	-3136
▁acquired	-3137
▁addition	-3138
▁agencies	-3139
▁campaign	-3140
▁channels	-3141
▁chemical	-3142
▁circumst	-3143
▁computer	-3144
▁contract	-3145
▁distinct	-3146
▁earliest	-3147
▁entities	-3148
▁external	-3149
▁heritage	-3150
▁hundreds	-3151
▁hydrogen	-3152
▁interact	-3153
▁learning	-3154
▁networks	-3155
▁northern	-3156
▁official	-3157
▁previous	-3158
▁projects	-3159
▁rainfall	-3160
▁released	-3161
▁sequence	-3162
▁soldiers	-3163
▁teachers	-3164
▁Hyderabad	-3165
▁Karnataka	-3166
▁advantage	-3167
▁appointed	-3168
▁construct	-3169
▁contained	-3170
▁disorders	-3171
▁encourage	-3172
▁estimates	-3173
▁expressed	-3174
▁household	-3175
▁interconn	-3176
▁jurisdict	-3177
▁marketing	-3178
▁organized	-3179
▁political	-3180
▁pollution	-3181
▁president	-3182
▁principal	-3183
▁principle	-3184
▁processes	-3185
▁radiation	-3186
▁satellite	-3187
▁spiritual	-3188
▁submitted	-3189
▁transfers	-3190
▁assistance	-3191
▁associated	-3192
▁atmosphere	-3193
▁industries	-3194
▁laboratory	-3195
▁parameters	-3196
▁threatened	-3197
▁traditions	-3198
▁understood	-3199
▁Cherrapunji	-3200
▁agriculture	-3201
▁attractions	-3202
▁citizenship	-3203
▁consumption	-3204
▁implemented	-3205
▁personality	-3206
▁remittances	-3207
▁architecture	-3208
▁entrepreneur	-3209
▁radiolabeled	-3210
▁respectively	-3211
▁communication	-3212
',	-3213
(1	-3214
)-	-3215
-3	-3216
.2	-3217
2-	-3218
27	-3219
57	-3220
77	-3221
85	-3222
90	-3223
AL	-3224
AP	-3225
Ab	-3226
Am	-3227
CD	-3228
CI	-3229
DS	-3230
GC	-3231
Go	-3232
HO	-3233
Or	-3234
PO	-3235
PS	-3236
SC	-3237
So	-3238
US	-3239
UT	-3240
We	-3241
ao	-3242
mu	-3243
td	-3244
wa	-3245
°–	-3246
▁$	-3247
▁i	-3248
'."	-3249
600	-3250
9),	-3251
AIL	-3252
All	-3253
Bes	-3254
Bet	-3255
But	-3256
Det	-3257
EEP	-3258
LIL	-3259
Not	-3260
SME	-3261
Two	-3262
You	-3263
alu	-3264
anm	-3265
asc	-3266
ato	-3267
aul	-3268
ava	-3269
cot	-3270
ead	-3271
eed	-3272
een	-3273
els	-3274
ems	-3275
eri	-3276
ett	-3277
gas	-3278
hab	-3279
has	-3280
iah	-3281
ica	-3282
iet	-3283
ilt	-3284
ini	-3285
ink	-3286
iop	-3287
iri	-3288
kal	-3289
ked	-3290
kha	-3291
leg	-3292
mas	-3293
mes	-3294
mod	-3295
nes	-3296
nic	-3297
oma	-3298
ork	-3299
Ad	-3300
af	-3301
ape	-3302
ipt	-3303
kra	-3304
leb	-3305
pid	-3306
pur	-3307
raj	-3308
riz	-3309
ued	-3310
uge	-3311
ulb	-3312
ulf	-3313
umb	-3314
unt	-3315
uri	-3316
wal	-3317
wan	-3318
▁(8	-3319
▁2,	-3320
▁29	-3321
▁30	-3322
▁40	-3323
▁44	-3324
▁49	-3325
▁50	-3326
▁80	-3327
▁AD	-3328
▁At	-3329
▁BJ	-3330
▁Bl	-3331
▁Bo	-3332
▁CB	-3333
▁Dh	-3334
▁Gl	-3335
▁IT	-3336
▁Ja	-3337
▁On	-3338
▁SE	-3339
▁Su	-3340
▁TV	-3341
▁Tr	-3342
▁UN	-3343
▁fa	-3344
▁ha	-3345
▁mi	-3346
▁pa	-3347
▁wr	-3348
""."	-3349
(1)(	-3350
From	-3351
REGA	-3352
abin	-3353
addy	-3354
adia	-3355
alli	-3356
anka	-3357
anth	-3358
argo	-3359
arth	-3360
ashm	-3361
atan	-3362
atma	-3363
ator	-3364
avid	-3365
band	-3366
cell	-3367
chan	-3368
ches	-3369
comm	-3370
edom	-3371
emed	-3372
enic	-3373
enth	-3374
eren	-3375
eros	-3376
esop	-3377
fare	-3378
fast	-3379
fess	-3380
fing	-3381
free	-3382
gest	-3383
hara	-3384
hing	-3385
hood	-3386
iate	-3387
ideo	-3388
ighb	-3389
ilos	-3390
imal	-3391
ique	-3392
ires	-3393
irth	-3394
isis	-3395
ison	-3396
leum	-3397
long	-3398
nded	-3399
jab	-3400
apat	-3401
dule	-3402
grow	-3403
isot	-3404
ndra	-3405
ocks	-3406
ocra	-3407
oded	-3408
oken	-3409
olly	-3410
omas	-3411
omen	-3412
onds	-3413
ooth	-3414
opes	-3415
oved	-3416
peut	-3417
pite	-3418
pped	-3419
pper	-3420
quar	-3421
rael	-3422
rait	-3423
rect	-3424
reed	-3425
rief	-3426
ript	-3427
roll	-3428
ugby	-3429
ully	-3430
ulpt	-3431
urve	-3432
utch	-3433
uted	-3434
vant	-3435
ware	-3436
wing	-3437
▁100	-3438
▁182	-3439
▁191	-3440
▁194	-3441
▁40%	-3442
▁Ali	-3443
▁Bab	-3444
▁Bal	-3445
▁But	-3446
▁CBI	-3447
▁CDC	-3448
▁Col	-3449
▁Dad	-3450
▁Dig	-3451
▁Emp	-3452
▁Fin	-3453
▁For	-3454
▁Goa	-3455
▁Gop	-3456
▁Her	-3457
▁ICC	-3458
▁Inc	-3459
▁Kal	-3460
▁Kap	-3461
▁Kar	-3462
▁Kas	-3463
▁Kau	-3464
▁Ley	-3465
▁Lim	-3466
▁Ltd	-3467
▁Mir	-3468
▁Mur	-3469
▁Nam	-3470
▁Old	-3471
▁Our	-3472
▁Pay	-3473
▁Pop	-3474
▁Pre	-3475
▁Psy	-3476
▁RBI	-3477
▁Rag	-3478
▁Rom	-3479
▁Sar	-3480
▁Sea	-3481
▁Sec	-3482
▁Sel	-3483
▁Shi	-3484
▁Sud	-3485
▁Tos	-3486
▁Vol	-3487
▁Wal	-3488
▁Yog	-3489
▁Yuj	-3490
▁agg	-3491
▁amb	-3492
▁arc	-3493
▁bea	-3494
▁bra	-3495
▁cho	-3496
▁cle	-3497
▁cop	-3498
▁cru	-3499
▁dam	-3500
▁doc	-3501
▁dry	-3502
▁eng	-3503
▁era	-3504
▁fab	-3505
▁fix	-3506
▁fra	-3507
▁hik	-3508
▁hit	-3509
▁jew	-3510
▁kil	-3511
▁lag	-3512
▁lic	-3513
▁mis	-3514
▁mob	-3515
▁mor	-3516
▁nom	-3517
▁nor	-3518
▁ord	-3519
▁ped	-3520
▁ple	-3521
▁rev	-3522
▁sac	-3523
▁sav	-3524
▁say	-3525
▁sed	-3526
▁sem	-3527
▁tab	-3528
▁thr	-3529
▁too	-3530
▁tru	-3531
▁ven	-3532
▁ver	-3533
▁vow	-3534
After	-3535
Apple	-3536
Elect	-3537
Under	-3538
abour	-3539
acity	-3540
adequ	-3541
adhar	-3542
aging	-3543
ailed	-3544
amesh	-3545
anate	-3546
anced	-3547
andhi	-3548
anged	-3549
arant	-3550
asser	-3551
asual	-3552
atant	-3553
based	-3554
ching	-3555
elvic	-3556
ennis	-3557
esium	-3558
field	-3559
fully	-3560
gency	-3561
herry	-3562
hesis	-3563
icine	-3564
icked	-3565
ickel	-3566
icrob	-3567
iddle	-3568
inces	-3569
ional	-3570
irect	-3571
irman	-3572
iting	-3573
ivery	-3574
ivity	-3575
lamic	-3576
luded	-3577
named	-3578
olute	-3579
olved	-3580
ommod	-3581
organ	-3582
ortun	-3583
osure	-3584
ously	-3585
overy	-3586
pared	-3587
place	-3588
plate	-3589
press	-3590
rated	-3591
rench	-3592
riate	-3593
ricts	-3594
taken	-3595
tings	-3596
udget	-3597
ufact	-3598
ulate	-3599
ument	-3600
uries	-3601
useum	-3602
▁1950	-3603
▁1960	-3604
▁2001	-3605
▁2010	-3606
▁2013	-3607
▁2018	-3608
▁2021	-3609
▁32.1	-3610
▁Arab	-3611
▁Camb	-3612
▁Chap	-3613
▁City	-3614
▁Club	-3615
▁Code	-3616
▁Dire	-3617
▁East	-3618
▁Guru	-3619
▁Hall	-3620
▁Hari	-3621
▁Jain	-3622
▁Jean	-3623
▁Liqu	-3624
▁List	-3625
▁Meer	-3626
▁Modi	-3627
▁More	-3628
▁Mult	-3629
▁Nadu	-3630
▁Park	-3631
▁Pres	-3632
▁Prog	-3633
▁Prot	-3634
▁Sang	-3635
▁Sche	-3636
▁Some	-3637
▁Sury	-3638
▁They	-3639
▁Ukra	-3640
▁West	-3641
▁Zeal	-3642
▁acad	-3643
▁acid	-3644
▁adds	-3645
▁army	-3646
▁auth	-3647
▁aver	-3648
▁capt	-3649
▁cash	-3650
▁caus	-3651
▁cert	-3652
▁chur	-3653
▁club	-3654
▁cold	-3655
▁conv	-3656
▁crow	-3657
▁deal	-3658
▁defe	-3659
▁dies	-3660
▁diss	-3661
▁dram	-3662
▁draw	-3663
▁drow	-3664
▁east	-3665
▁elim	-3666
▁emer	-3667
▁excl	-3668
▁face	-3669
▁fats	-3670
▁gets	-3671
▁girl	-3672
▁hill	-3673
▁hold	-3674
▁idea	-3675
▁impl	-3676
▁lack	-3677
▁last	-3678
▁laws	-3679
▁left	-3680
▁meet	-3681
▁mind	-3682
▁miss	-3683
▁move	-3684
▁myst	-3685
▁myth	-3686
▁narr	-3687
▁oils	-3688
▁pack	-3689
▁poly	-3690
▁poor	-3691
▁pred	-3692
▁prem	-3693
▁race	-3694
▁rail	-3695
▁rall	-3696
▁rock	-3697
▁runs	-3698
▁safe	-3699
▁sale	-3700
▁says	-3701
▁scar	-3702
▁sect	-3703
▁shot	-3704
▁site	-3705
▁slum	-3706
▁soul	-3707
▁suff	-3708
▁susp	-3709
▁swim	-3710
▁synt	-3711
▁tend	-3712
▁tree	-3713
▁viol	-3714
▁wall	-3715
▁weap	-3716
▁week	-3717
▁wins	-3718
▁wond	-3719
Follow	-3720
abinet	-3721
akened	-3722
anning	-3723
apping	-3724
arents	-3725
aulted	-3726
cedure	-3727
change	-3728
cially	-3729
contin	-3730
ctions	-3731
elling	-3732
esters	-3733
icious	-3734
icting	-3735
ilient	-3736
ivided	-3737
length	-3738
mittee	-3739
ocracy	-3740
ompass	-3741
orship	-3742
peutic	-3743
plines	-3744
prises	-3745
riched	-3746
ricity	-3747
roleum	-3748
romagn	-3749
ronics	-3750
selves	-3751
ulated	-3752
ulates	-3753
▁2000,	-3754
▁2006,	-3755
▁2013,	-3756
▁2017,	-3757
▁2020.	-3758
▁2021,	-3759
▁Assam	-3760
▁Award	-3761
▁BBLIL	-3762
▁Canal	-3763
▁Civil	-3764
▁Dutch	-3765
▁Earth	-3766
▁Enter	-3767
▁Falls	-3768
▁Grand	-3769
▁Green	-3770
▁Japan	-3771
▁Jones	-3772
▁Kashm	-3773
▁Kochi	-3774
▁Panch	-3775
▁Rugby	-3776
▁Seven	-3777
▁Vedic	-3778
▁Wadia	-3779
▁White	-3780
▁basic	-3781
▁began	-3782
▁begin	-3783
▁bound	-3784
▁bring	-3785
▁built	-3786
▁calor	-3787
▁champ	-3788
▁coins	-3789
▁creat	-3790
▁crime	-3791
▁decre	-3792
▁defin	-3793
▁dynam	-3794
▁eight	-3795
▁facts	-3796
▁faith	-3797
▁fever	-3798
▁filmm	-3799
▁force	-3800
▁forth	-3801
▁fruit	-3802
▁fully	-3803
▁grown	-3804
▁hands	-3805
▁heard	-3806
▁heart	-3807
▁helps	-3808
▁homes	-3809
▁image	-3810
▁indig	-3811
▁input	-3812
▁lakes	-3813
▁moder	-3814
▁mount	-3815
▁munic	-3816
▁names	-3817
▁nerve	-3818
▁occup	-3819
▁oppos	-3820
▁peace	-3821
▁plane	-3822
▁prior	-3823
▁prote	-3824
▁psych	-3825
▁purch	-3826
▁quite	-3827
▁races	-3828
▁rally	-3829
▁rapid	-3830
▁schol	-3831
▁shall	-3832
▁shape	-3833
▁sharp	-3834
▁shore	-3835
▁shown	-3836
▁shows	-3837
▁socio	-3838
▁solar	-3839
▁songs	-3840
▁store	-3841
▁story	-3842
▁super	-3843
▁taxes	-3844
▁teach	-3845
▁thera	-3846
▁thick	-3847
▁tresp	-3848
▁trial	-3849
▁upper	-3850
▁vapor	-3851
▁vehic	-3852
▁verse	-3853
▁video	-3854
▁views	-3855
▁write	-3856
▁wrong	-3857
Besides	-3858
artment	-3859
cessive	-3860
edicine	-3861
equival	-3862
essions	-3863
illance	-3864
imicrob	-3865
iratory	-3866
istered	-3867
istrict	-3868
itarian	-3869
itioner	-3870
iveness	-3871
ivision	-3872
leyball	-3873
nership	-3874
ography	-3875
oidable	-3876
ologies	-3877
ossible	-3878
ression	-3879
ruments	-3880
taining	-3881
uration	-3882
▁Amrits	-3883
▁Anchor	-3884
▁Andhra	-3885
▁Associ	-3886
▁Bangal	-3887
▁Christ	-3888
▁County	-3889
▁Empire	-3890
▁French	-3891
▁Gandhi	-3892
▁German	-3893
▁Health	-3894
▁Island	-3895
▁Israel	-3896
▁Mughal	-3897
▁Odisha	-3898
▁Pandey	-3899
▁Punjab	-3900
▁Ramesh	-3901
▁Thomas	-3902
▁abroad	-3903
▁access	-3904
▁affect	-3905
▁afford	-3906
▁agreed	-3907
▁approp	-3908
▁aspect	-3909
▁batter	-3910
▁bodies	-3911
▁branch	-3912
▁cogniz	-3913
▁coming	-3914
▁corpor	-3915
▁course	-3916
▁create	-3917
▁crisis	-3918
▁crores	-3919
▁degrad	-3920
▁demand	-3921
▁divers	-3922
▁double	-3923
▁ending	-3924
▁entire	-3925
▁equity	-3926
▁exceed	-3927
▁except	-3928
▁exists	-3929
▁extent	-3930
▁fabric	-3931
▁formed	-3932
▁friend	-3933
▁giving	-3934
▁harmon	-3935
▁height	-3936
▁inches	-3937
▁inject	-3938
▁letter	-3939
▁likely	-3940
▁living	-3941
▁longer	-3942
▁mechan	-3943
▁member	-3944
▁milest	-3945
▁millet	-3946
▁mining	-3947
▁mother	-3948
▁motion	-3949
▁moving	-3950
▁multil	-3951
▁nearly	-3952
▁neighb	-3953
▁obtain	-3954
▁pathog	-3955
▁philos	-3956
▁plains	-3957
▁powder	-3958
▁prepar	-3959
▁prison	-3960
▁promot	-3961
▁prompt	-3962
▁propos	-3963
▁reserv	-3964
▁return	-3965
▁review	-3966
▁sculpt	-3967
▁senior	-3968
▁served	-3969
▁signal	-3970
▁silver	-3971
▁skills	-3972
▁street	-3973
▁struct	-3974
▁subsid	-3975
▁target	-3976
▁titled	-3977
▁tribal	-3978
▁unique	-3979
▁useful	-3980
▁values	-3981
▁varied	-3982
▁verses	-3983
▁vision	-3984
▁volume	-3985
▁waters	-3986
▁wealth	-3987
adequate	-3988
asonable	-3989
distance	-3990
economic	-3991
ineering	-3992
iversity	-3993
ollywood	-3994
ployment	-3995
quarters	-3996
▁Andaman	-3997
▁Austral	-3998
▁Banglad	-3999
▁Channel	-4000
▁Company	-4001
▁Develop	-4002
▁Digital	-4003
▁England	-4004
▁Indians	-4005
▁Indones	-4006
▁Leyland	-4007
▁Limited	-4008
▁Muslims	-4009
▁Payment	-4010
▁Popular	-4011
▁Profess	-4012
▁Service	-4013
▁Zealand	-4014
▁acceler	-4015
▁actions	-4016
▁adverse	-4017
▁animals	-4018
▁aquatic	-4019
▁arrange	-4020
▁benefit	-4021
▁biomass	-4022
▁changed	-4023
▁coastal	-4024
▁command	-4025
▁complex	-4026
▁consist	-4027
▁constit	-4028
▁consult	-4029
▁covered	-4030
▁decided	-4031
▁discrim	-4032
▁disease	-4033
▁display	-4034
▁dispute	-4035
▁diverse	-4036
▁essence	-4037
▁eternal	-4038
▁evident	-4039
▁farming	-4040
▁feature	-4041
▁finally	-4042
▁fishing	-4043
▁focused	-4044
▁forward	-4045
▁freedom	-4046
▁imports	-4047
▁largely	-4048
▁largest	-4049
▁limited	-4050
▁managed	-4051
▁meaning	-4052
▁mention	-4053
▁minutes	-4054
▁neither	-4055
▁network	-4056
▁opening	-4057
▁parents	-4058
▁passing	-4059
▁peoples	-4060
▁produce	-4061
▁quickly	-4062
▁rallied	-4063
▁reactor	-4064
▁reasons	-4065
▁records	-4066
▁regions	-4067
▁regular	-4068
▁renamed	-4069
▁reports	-4070
▁restore	-4071
▁rituals	-4072
▁section	-4073
▁strateg	-4074
▁subject	-4075
▁subsequ	-4076
▁testing	-4077
▁thought	-4078
▁treated	-4079
▁version	-4080
▁western	-4081
▁whether	-4082
▁winning	-4083
▁worldly	-4084
▁written	-4085
Following	-4086
Therefore	-4087
ordinated	-4088
▁Egyptian	-4089
▁Festival	-4090
▁Medicine	-4091
▁Pakistan	-4092
▁Psychiat	-4093
▁absolute	-4094
▁accommod	-4095
▁achieved	-4096
▁affected	-4097
▁although	-4098
▁anything	-4099
▁attacked	-4100
▁audience	-4101
▁category	-4102
▁certific	-4103
▁children	-4104
▁collabor	-4105
▁combined	-4106
▁composed	-4107
▁concerns	-4108
▁consumer	-4109
▁covering	-4110
▁currency	-4111
▁delivery	-4112
▁demonstr	-4113
▁designed	-4114
▁director	-4115
▁diseases	-4116
▁disorder	-4117
▁doctrine	-4118
▁drowning	-4119
▁enriched	-4120
▁estimate	-4121
▁examples	-4122
▁exposure	-4123
▁included	-4124
▁indirect	-4125
▁intended	-4126
▁investig	-4127
▁judicial	-4128
▁manufact	-4129
▁marriage	-4130
▁material	-4131
▁officers	-4132
▁offshore	-4133
▁position	-4134
▁positive	-4135
▁possible	-4136
▁prepared	-4137
▁progress	-4138
▁purposes	-4139
▁realizes	-4140
▁rebounds	-4141
▁recovery	-4142
▁regional	-4143
▁religion	-4144
▁replaced	-4145
▁requires	-4146
▁resulted	-4147
▁selected	-4148
▁specific	-4149
▁standard	-4150
▁starring	-4151
▁students	-4152
▁swimming	-4153
▁vaccines	-4154
▁visitors	-4155
equivalent	-4156
romagnetic	-4157
▁Bangalore	-4158
▁Buddhists	-4159
▁Committee	-4160
▁Gangadhar	-4161
▁Rajasthan	-4162
▁announced	-4163
▁assaulted	-4164
▁authority	-4165
▁behaviour	-4166
▁breakfast	-4167
▁broadcast	-4168
▁centuries	-4169
▁collected	-4170
▁community	-4171
▁concerned	-4172
▁container	-4173
▁converted	-4174
▁currently	-4175
▁described	-4176
▁diagnosis	-4177
▁difficult	-4178
▁digestive	-4179
▁dominated	-4180
▁effective	-4181
▁encompass	-4182
▁establish	-4183
▁existence	-4184
▁highlight	-4185
▁inquiries	-4186
▁interview	-4187
▁liquidity	-4188
▁narrative	-4189
▁nutrition	-4190
▁objective	-4191
▁officials	-4192
▁organised	-4193
▁paintings	-4194
▁primarily	-4195
▁radioisot	-4196
▁reactions	-4197
▁reduction	-4198
▁resilient	-4199
▁salvation	-4200
▁sediments	-4201
▁situation	-4202
▁workplace	-4203
▁Convention	-4204
▁acceptance	-4205
▁categories	-4206
▁collecting	-4207
▁commitment	-4208
▁consisting	-4209
▁conversion	-4210
▁criticised	-4211
▁determined	-4212
▁eventually	-4213
▁everything	-4214
▁exhibition	-4215
▁experience	-4216
▁expression	-4217
▁functional	-4218
▁impossible	-4219
▁inadequate	-4220
▁indigenous	-4221
▁literature	-4222
▁occupation	-4223
▁operations	-4224
▁originally	-4225
▁parliament	-4226
▁pensioners	-4227
▁possession	-4228
▁previously	-4229
▁processing	-4230
▁protecting	-4231
▁recognized	-4232
▁resistance	-4233
▁scientists	-4234
▁sculptures	-4235
▁securities	-4236
▁situations	-4237
▁sufficient	-4238
▁themselves	-4239
▁trespasser	-4240
▁ultimately	-4241
▁undertaken	-4242
▁vulnerable	-4243
▁Afghanistan	-4244
▁Association	-4245
▁Development	-4246
▁Legislative	-4247
▁accompanied	-4248
▁appropriate	-4249
▁communicate	-4250
▁cultivation	-4251
▁description	-4252
▁distinctive	-4253
▁electricity	-4254
▁experienced	-4255
▁experiences	-4256
▁instruments	-4257
▁maintenance	-4258
▁partnership	-4259
▁proceedings	-4260
▁regulations	-4261
▁requirement	-4262
▁sustainable	-4263
▁therapeutic	-4264
▁construction	-4265
▁distribution	-4266
▁headquarters	-4267
▁institutions	-4268
▁requirements	-4269
▁surroundings	-4270
▁circumstances	-4271
▁comparatively	-4272
▁technological	-4273
▁administrative	-4274
▁classification	-4275
▁discrimination	-4276
▁infrastructure	-4277
▁interconnected	-4278
opharmaceuticals	-4279
▁Pharmaceuticals	-4280
▁electromagnetic	-4281
$7.	-4282
-10	-4283
2,5	-4284
Arm	-4285
Goa	-4286
NSE	-4287
WHO	-4288
YUS	-4289
awn	-4290
aws	-4291
egu	-4292
gae	-4293
hma	-4294
nov	-4295
obs	-4296
yug	-4297
▁60	-4298
▁63	-4299
20%	-4300
20-	-4301
aja	-4302
eps	-4303
▁41	-4304
▁5-	-4305
▁55	-4306
▁Qu	-4307
Even	-4308
Many	-4309
NSEX	-4310
Orig	-4311
Paul	-4312
Radi	-4313
SEAN	-4314
Thus	-4315
YUSH	-4316
adio	-4317
alah	-4318
amna	-4319
anna	-4320
araj	-4321
awnp	-4322
back	-4323
bles	-4324
book	-4325
cool	-4326
diot	-4327
ecut	-4328
emov	-4329
enza	-4330
etah	-4331
exic	-4332
hapa	-4333
haps	-4334
hita	-4335
ibly	-4336
isco	-4337
jini	-4338
lamm	-4339
lets	-4340
nife	-4341
ofed	-4342
oons	-4343
oyal	-4344
ribb	-4345
rize	-4346
ttin	-4347
ucky	-4348
udev	-4349
wise	-4350
yuga	-4351
°–27	-4352
▁($2	-4353
▁(12	-4354
▁1.6	-4355
▁17-	-4356
▁175	-4357
▁6.4	-4358
▁6.7	-4359
▁7.1	-4360
▁900	-4361
▁Adi	-4362
▁Art	-4363
▁BJD	-4364
▁BPL	-4365
▁Ell	-4366
▁HLL	-4367
▁Inf	-4368
▁Iss	-4369
▁Its	-4370
▁Lee	-4371
▁Lev	-4372
▁Maj	-4373
▁McL	-4374
▁NRO	-4375
▁One	-4376
▁Tai	-4377
▁bio	-4378
▁buy	-4379
▁die	-4380
▁emb	-4381
▁hyb	-4382
▁lie	-4383
▁rac	-4384
▁sof	-4385
▁waz	-4386
.2019	-4387
004),	-4388
Among	-4389
Broad	-4390
Given	-4391
Where	-4392
akrav	-4393
alyst	-4394
amboo	-4395
amese	-4396
ammer	-4397
apaya	-4398
apple	-4399
ms	-4400
7),	-4401
iph	-4402
pir	-4403
set	-4404
▁31	-4405
▁38	-4406
▁IN	-4407
▁IR	-4408
ackb	-4409
aint	-4410
dney	-4411
gent	-4412
hind	-4413
ipur	-4414
lone	-4415
olid	-4416
reci	-4417
▁800	-4418
▁INC	-4419
▁Ice	-4420
▁Pad	-4421
▁Pal	-4422
▁Sir	-4423
▁Utt	-4424
▁bow	-4425
▁bul	-4426
▁fig	-4427
▁haz	-4428
▁jus	-4429
▁rot	-4430
▁sty	-4431
▁tig	-4432
First	-4433
antly	-4434
araik	-4435
ariah	-4436
attis	-4437
aught	-4438
chool	-4439
cific	-4440
cisco	-4441
comes	-4442
diots	-4443
eeper	-4444
encil	-4445
endal	-4446
endva	-4447
erene	-4448
erted	-4449
ertil	-4450
ewise	-4451
exico	-4452
front	-4453
going	-4454
hapat	-4455
havan	-4456
ictor	-4457
iforn	-4458
itals	-4459
itory	-4460
ivals	-4461
janta	-4462
losed	-4463
odder	-4464
ondon	-4465
orida	-4466
owrah	-4467
print	-4468
ramme	-4469
rasad	-4470
rehen	-4471
roved	-4472
roves	-4473
secut	-4474
spend	-4475
stone	-4476
thnic	-4477
ucian	-4478
udevo	-4479
ugees	-4480
ugues	-4481
value	-4482
yamna	-4483
▁120-	-4484
▁1920	-4485
▁1970	-4486
▁1980	-4487
▁1989	-4488
▁1991	-4489
▁1992	-4490
▁2008	-4491
▁2022	-4492
▁Abhi	-4493
▁Angk	-4494
▁Biom	-4495
▁Bose	-4496
▁Cook	-4497
▁DEEP	-4498
▁Dipl	-4499
-0	-4500
By	-4501
RI	-4502
be	-4503
Mha	-4504
Set	-4505
ano	-4506
izo	-4507
nut	-4508
olt	-4509
ula	-4510
▁Ag	-4511
▁IS	-4512
Then	-4513
ader	-4514
anim	-4515
esse	-4516
ette	-4517
hine	-4518
ihil	-4519
uton	-4520
▁App	-4521
▁Ben	-4522
▁Bir	-4523
▁Cla	-4524
▁SBI	-4525
▁Sit	-4526
▁bot	-4527
▁pud	-4528
▁sam	-4529
▁sta	-4530
force	-4531
ingly	-4532
known	-4533
later	-4534
uvial	-4535
▁Cape	-4536
▁Chul	-4537
▁Fair	-4538
▁Foot	-4539
▁Gold	-4540
▁ISRO	-4541
▁June	-4542
▁Kend	-4543
▁Khat	-4544
▁Land	-4545
▁MSME	-4546
▁Mald	-4547
▁Many	-4548
▁Minu	-4549
▁Mira	-4550
▁News	-4551
▁Praj	-4552
▁Prop	-4553
▁Pune	-4554
▁Radi	-4555
▁Shen	-4556
▁Sidd	-4557
▁Time	-4558
▁Town	-4559
▁Valm	-4560
▁Vice	-4561
▁Vish	-4562
▁York	-4563
▁airc	-4564
▁ampl	-4565
▁bird	-4566
▁blue	-4567
▁boat	-4568
▁bomb	-4569
▁born	-4570
▁bott	-4571
▁chai	-4572
▁curv	-4573
▁didn	-4574
▁drop	-4575
▁earn	-4576
▁elev	-4577
▁ends	-4578
▁espe	-4579
▁evac	-4580
▁evil	-4581
▁eyes	-4582
▁fair	-4583
▁feat	-4584
▁feed	-4585
▁flas	-4586
▁flav	-4587
▁foot	-4588
▁fram	-4589
▁furn	-4590
▁guid	-4591
▁heli	-4592
▁hidd	-4593
▁holy	-4594
▁hygi	-4595
▁imag	-4596
▁isol	-4597
▁kept	-4598
▁late	-4599
And	-4600
cht	-4601
efs	-4602
gor	-4603
hot	-4604
kot	-4605
lem	-4606
lex	-4607
oum	-4608
sey	-4609
xts	-4610
▁77	-4611
▁Fr	-4612
▁MA	-4613
▁Re	-4614
Like	-4615
alin	-4616
avir	-4617
cean	-4618
pled	-4619
rrit	-4620
stra	-4621
tion	-4622
utra	-4623
wide	-4624
▁2.0	-4625
▁Bas	-4626
▁Edu	-4627
▁Fer	-4628
▁Jam	-4629
▁dat	-4630
▁eas	-4631
▁fro	-4632
▁gar	-4633
▁hon	-4634
▁mal	-4635
▁red	-4636
▁sle	-4637
ellow	-4638
inary	-4639
ipara	-4640
pline	-4641
ribes	-4642
▁3200	-4643
▁Educ	-4644
▁Rast	-4645
▁Rich	-4646
▁laid	-4647
▁mess	-4648
▁mild	-4649
▁mode	-4650
▁neut	-4651
▁park	-4652
▁pray	-4653
▁pref	-4654
▁qual	-4655
▁quar	-4656
▁reve	-4657
▁rope	-4658
▁rose	-4659
▁semi	-4660
▁sets	-4661
▁size	-4662
▁sofa	-4663
▁spot	-4664
▁stom	-4665
▁subm	-4666
▁summ	-4667
▁tamp	-4668
▁tens	-4669
▁town	-4670
▁true	-4671
▁valu	-4672
▁vasc	-4673
▁visa	-4674
▁volt	-4675
▁warm	-4676
▁warn	-4677
▁wars	-4678
▁watt	-4679
▁welf	-4680
Though	-4681
Unlike	-4682
acedon	-4683
ailing	-4684
allava	-4685
allery	-4686
ambers	-4687
anksha	-4688
arians	-4689
artoum	-4690
ashing	-4691
ceased	-4692
chlear	-4693
ciples	-4694
conomy	-4695
cooled	-4696
earney	-4697
ederal	-4698
eguard	-4699
24	-4700
4%	-4701
Ar	-4702
CB	-4703
DH	-4704
ED	-4705
MO	-4706
RS	-4707
TE	-4708
TI	-4709
xy	-4710
▁0	-4711
575	-4712
Ash	-4713
Car	-4714
but	-4715
vey	-4716
▁(4	-4717
▁EC	-4718
imed	-4719
orms	-4720
ping	-4721
rupt	-4722
seng	-4723
▁bat	-4724
▁bit	-4725
▁inj	-4726
▁irr	-4727
▁oxy	-4728
▁pit	-4729
▁sor	-4730
Ashok	-4731
entle	-4732
ilber	-4733
opted	-4734
ravas	-4735
utory	-4736
xiety	-4737
▁Fran	-4738
▁outp	-4739
▁sand	-4740
▁shad	-4741
▁tall	-4742
emicon	-4743
ennium	-4744
esophy	-4745
estyle	-4746
finger	-4747
friend	-4748
harata	-4749
heathe	-4750
hettin	-4751
ibrary	-4752
iences	-4753
ifiers	-4754
ifying	-4755
imalay	-4756
iminal	-4757
iotics	-4758
ipment	-4759
ishads	-4760
istics	-4761
itised	-4762
lation	-4763
liness	-4764
lining	-4765
mented	-4766
oceros	-4767
olving	-4768
ommend	-4769
opathy	-4770
orning	-4771
ospher	-4772
oyalty	-4773
parent	-4774
pieces	-4775
placed	-4776
rammes	-4777
ranean	-4778
rehens	-4779
ronage	-4780
roofed	-4781
rovers	-4782
rudevo	-4783
rusted	-4784
sector	-4785
seeing	-4786
states	-4787
tained	-4788
taking	-4789
tended	-4790
ticles	-4791
titude	-4792
uguese	-4793
ulsive	-4794
ultery	-4795
unolog	-4796
wality	-4797
wanted	-4798
zerbai	-4799
04	-4800
69	-4801
80	-4802
Cs	-4803
EO	-4804
OM	-4805
OV	-4806
PI	-4807
ba	-4808
ki	-4809
rs	-4810
Gen	-4811
Mah	-4812
OVI	-4813
TII	-4814
ami	-4815
amm	-4816
enu	-4817
fin	-4818
oes	-4819
ora	-4820
▁$2	-4821
▁46	-4822
▁du	-4823
▁sq	-4824
▁tw	-4825
-202	-4826
OVID	-4827
ango	-4828
anic	-4829
haji	-4830
icon	-4831
orra	-4832
raha	-4833
uter	-4834
▁Jag	-4835
▁Met	-4836
▁Son	-4837
▁ant	-4838
▁ble	-4839
▁gra	-4840
▁hep	-4841
-2023	-4842
aysia	-4843
canic	-4844
inald	-4845
izers	-4846
rical	-4847
▁Bulb	-4848
▁Deep	-4849
▁FTII	-4850
▁carp	-4851
▁dial	-4852
▁ensu	-4853
▁loan	-4854
▁scen	-4855
▁webs	-4856
ceptor	-4857
finals	-4858
ricate	-4859
▁(1916	-4860
▁(2000	-4861
▁1994,	-4862
▁2005,	-4863
▁2009,	-4864
▁2011,	-4865
▁2015,	-4866
▁2016,	-4867
▁AYUSH	-4868
▁About	-4869
▁Andre	-4870
▁Apple	-4871
▁Asans	-4872
▁Babli	-4873
▁Bible	-4874
▁Bihar	-4875
▁Birla	-4876
▁Broad	-4877
▁COVID	-4878
▁Cawnp	-4879
▁Chief	-4880
▁Clair	-4881
▁Coast	-4882
▁Const	-4883
▁Cream	-4884
▁Dasam	-4885
▁Ferry	-4886
▁Ghats	-4887
▁Godab	-4888
▁Gopal	-4889
▁Greek	-4890
▁James	-4891
▁Lanka	-4892
▁Lucky	-4893
▁Mahab	-4894
▁Multi	-4895
▁Opera	-4896
▁Organ	-4897
▁Oriya	-4898
▁Party	-4899
25	-4900
35	-4901
6%	-4902
MP	-4903
ni	-4904
ps	-4905
yo	-4906
arh	-4907
cap	-4908
cue	-4909
ont	-4910
ops	-4911
ped	-4912
rix	-4913
ror	-4914
uda	-4915
▁Be	-4916
▁ID	-4917
2020	-4918
Pres	-4919
akti	-4920
body	-4921
hera	-4922
icit	-4923
inth	-4924
jian	-4925
okyo	-4926
oolw	-4927
room	-4928
▁Pur	-4929
▁Yas	-4930
▁ang	-4931
▁exc	-4932
▁hub	-4933
▁key	-4934
▁org	-4935
▁sco	-4936
▁wed	-4937
akart	-4938
akers	-4939
hakti	-4940
iolet	-4941
owned	-4942
ubbed	-4943
▁Devi	-4944
▁Garh	-4945
▁Same	-4946
▁Yasu	-4947
▁acts	-4948
▁anth	-4949
▁seat	-4950
▁sett	-4951
▁stim	-4952
▁wedd	-4953
akarta	-4954
elting	-4955
ineers	-4956
iously	-4957
▁Penal	-4958
▁Prize	-4959
▁Quest	-4960
▁Radio	-4961
▁Rajya	-4962
▁Roman	-4963
▁Shank	-4964
▁Sikhs	-4965
▁Sites	-4966
▁Spain	-4967
▁Surya	-4968
▁Table	-4969
▁Three	-4970
▁Tokyo	-4971
▁Trade	-4972
▁Tseng	-4973
▁Women	-4974
▁abuse	-4975
▁accum	-4976
▁adequ	-4977
▁algor	-4978
▁alkal	-4979
▁alone	-4980
▁ascer	-4981
▁asked	-4982
▁athle	-4983
▁audio	-4984
▁aware	-4985
▁backw	-4986
▁barks	-4987
▁barri	-4988
▁basal	-4989
▁beaut	-4990
▁birth	-4991
▁bombs	-4992
▁bonds	-4993
▁bread	-4994
▁build	-4995
▁calls	-4996
▁canon	-4997
▁celeb	-4998
▁chefs	-4999
);	-5000
.)	-5001
3%	-5002
30	-5003
Cl	-5004
St	-5005
8."	-5006
bas	-5007
eha	-5008
hin	-5009
hor	-5010
jit	-5011
war	-5012
xes	-5013
▁Br	-5014
▁MI	-5015
▁MP	-5016
99),	-5017
More	-5018
ades	-5019
aska	-5020
idan	-5021
oors	-5022
▁690	-5023
▁Hen	-5024
▁Jew	-5025
▁Pan	-5026
▁Rus	-5027
▁abo	-5028
▁beg	-5029
▁cra	-5030
▁roc	-5031
▁ton	-5032
Major	-5033
clear	-5034
erxes	-5035
house	-5036
ikita	-5037
ormal	-5038
othos	-5039
raint	-5040
°–27°	-5041
▁Ward	-5042
▁Yoga	-5043
▁else	-5044
▁hang	-5045
▁lend	-5046
▁meth	-5047
▁rhin	-5048
▁sore	-5049
▁west	-5050
arapat	-5051
keeper	-5052
manent	-5053
utable	-5054
▁Group	-5055
▁Sudan	-5056
▁chest	-5057
▁clust	-5058
▁colon	-5059
▁compr	-5060
▁costs	-5061
▁cours	-5062
▁craft	-5063
▁crowd	-5064
▁crust	-5065
▁cupro	-5066
▁debut	-5067
▁decor	-5068
▁deriv	-5069
▁diver	-5070
▁domin	-5071
▁doses	-5072
▁drama	-5073
▁draws	-5074
▁dribb	-5075
▁ended	-5076
▁epics	-5077
▁evacu	-5078
▁fault	-5079
▁fewer	-5080
▁final	-5081
▁fixed	-5082
▁flood	-5083
▁fract	-5084
▁fring	-5085
▁frost	-5086
▁gathe	-5087
▁going	-5088
▁grade	-5089
▁grant	-5090
▁grids	-5091
▁grind	-5092
▁heatw	-5093
▁highl	-5094
▁ideal	-5095
▁illum	-5096
▁inequ	-5097
▁infer	-5098
▁inhab	-5099
!"	-5100
.8	-5101
.;	-5102
7)	-5103
BO	-5104
De	-5105
IR	-5106
PD	-5107
PP	-5108
hu	-5109
vo	-5110
▁[	-5111
Equ	-5112
add	-5113
bon	-5114
den	-5115
ein	-5116
nal	-5117
rut	-5118
thm	-5119
▁Ol	-5120
▁ma	-5121
atal	-5122
avan	-5123
hiba	-5124
impl	-5125
ithm	-5126
itre	-5127
ocol	-5128
prot	-5129
▁126	-5130
▁FIR	-5131
▁bed	-5132
▁dog	-5133
▁las	-5134
▁ser	-5135
▁sin	-5136
▁sum	-5137
about	-5138
ading	-5139
alled	-5140
aters	-5141
itate	-5142
olith	-5143
otsav	-5144
▁(860	-5145
▁Gita	-5146
▁Khag	-5147
▁Oliv	-5148
▁Then	-5149
▁bill	-5150
▁cart	-5151
▁grad	-5152
▁mand	-5153
▁prud	-5154
▁stor	-5155
acters	-5156
atform	-5157
called	-5158
eworth	-5159
inking	-5160
▁2007,	-5161
▁adapt	-5162
▁algae	-5163
▁items	-5164
▁judge	-5165
▁kings	-5166
▁knife	-5167
▁lands	-5168
▁leads	-5169
▁legit	-5170
▁lever	-5171
▁lived	-5172
▁lives	-5173
▁loans	-5174
▁loose	-5175
▁mango	-5176
▁merge	-5177
▁minor	-5178
▁mixed	-5179
▁monso	-5180
▁motif	-5181
▁motor	-5182
▁mouth	-5183
▁negot	-5184
▁night	-5185
▁noble	-5186
▁noise	-5187
▁numer	-5188
▁offer	-5189
▁older	-5190
▁onset	-5191
▁oppon	-5192
▁outer	-5193
▁overs	-5194
▁owned	-5195
▁owner	-5196
▁paise	-5197
▁pedon	-5198
▁presc	-5199
9.	-5200
SL	-5201
Sh	-5202
2),	-5203
eda	-5204
edy	-5205
eem	-5206
emn	-5207
iem	-5208
tun	-5209
uan	-5210
▁24	-5211
▁NP	-5212
▁vs	-5213
▁wa	-5214
agar	-5215
aled	-5216
cise	-5217
emen	-5218
ohan	-5219
pers	-5220
rome	-5221
wara	-5222
▁150	-5223
▁17,	-5224
▁50%	-5225
▁75%	-5226
▁Bel	-5227
▁Dak	-5228
▁Edg	-5229
▁Got	-5230
▁Haz	-5231
▁Lah	-5232
▁Wah	-5233
▁fan	-5234
▁tur	-5235
▁why	-5236
astic	-5237
emned	-5238
eties	-5239
ggreg	-5240
sters	-5241
▁Fore	-5242
▁enem	-5243
▁hero	-5244
▁ones	-5245
▁pers	-5246
▁push	-5247
ancing	-5248
bility	-5249
import	-5250
▁1986,	-5251
▁Ganga	-5252
▁Hamil	-5253
▁abund	-5254
▁apply	-5255
▁canal	-5256
▁cargo	-5257
▁comes	-5258
▁earth	-5259
▁fried	-5260
▁hikes	-5261
▁leave	-5262
▁pride	-5263
▁quant	-5264
▁reefs	-5265
▁river	-5266
▁rough	-5267
▁round	-5268
▁rules	-5269
▁sales	-5270
▁sched	-5271
▁scope	-5272
▁score	-5273
▁seats	-5274
▁shaft	-5275
▁shops	-5276
▁simpl	-5277
▁sites	-5278
▁soils	-5279
▁solid	-5280
▁spect	-5281
▁staff	-5282
▁stake	-5283
▁steel	-5284
▁steps	-5285
▁stone	-5286
▁strat	-5287
▁study	-5288
▁stunt	-5289
▁subsc	-5290
▁sugar	-5291
▁suits	-5292
▁taxis	-5293
▁texts	-5294
▁tiger	-5295
▁trust	-5296
▁turns	-5297
▁types	-5298
▁units	-5299
nu	-5300
col	-5301
ift	-5302
iki	-5303
kum	-5304
tha	-5305
udg	-5306
udi	-5307
var	-5308
▁Ge	-5309
▁NS	-5310
HLLW	-5311
Sand	-5312
Till	-5313
acks	-5314
also	-5315
andy	-5316
antu	-5317
athl	-5318
eshi	-5319
ifth	-5320
iful	-5321
oler	-5322
onym	-5323
ople	-5324
raph	-5325
▁Rat	-5326
▁Red	-5327
▁Rim	-5328
▁Sen	-5329
▁Sol	-5330
▁Sum	-5331
▁rob	-5332
▁sun	-5333
achal	-5334
antar	-5335
ayana	-5336
inema	-5337
lined	-5338
ravel	-5339
track	-5340
usion	-5341
▁Arch	-5342
▁Gaur	-5343
▁Holy	-5344
▁Rest	-5345
▁dang	-5346
▁here	-5347
▁pand	-5348
▁pest	-5349
▁pine	-5350
▁plus	-5351
▁sort	-5352
ateral	-5353
entive	-5354
former	-5355
itayan	-5356
nickel	-5357
▁(2019	-5358
▁Selju	-5359
▁Super	-5360
▁aside	-5361
▁brief	-5362
▁imper	-5363
▁mines	-5364
▁rates	-5365
▁volat	-5366
▁waste	-5367
▁waves	-5368
▁weeks	-5369
▁yield	-5370
▁youth	-5371
Another	-5372
Between	-5373
Details	-5374
Further	-5375
Notable	-5376
Similar	-5377
aborate	-5378
acteria	-5379
araikal	-5380
atantra	-5381
aughter	-5382
cession	-5383
ductors	-5384
ections	-5385
eliance	-5386
enuated	-5387
estines	-5388
hapatra	-5389
harvest	-5390
hemical	-5391
holders	-5392
iencies	-5393
ierarch	-5394
ifornia	-5395
ighters	-5396
ilation	-5397
ircular	-5398
issions	-5399
.),	-5400
abh	-5401
agg	-5402
ipp	-5403
jud	-5404
uba	-5405
▁Es	-5406
▁HI	-5407
▁Hs	-5408
▁Na	-5409
adhi	-5410
agen	-5411
atis	-5412
emor	-5413
main	-5414
nces	-5415
onda	-5416
part	-5417
rial	-5418
▁(18	-5419
▁20,	-5420
▁Bus	-5421
▁ago	-5422
▁nav	-5423
▁pun	-5424
▁ran	-5425
ables	-5426
iline	-5427
iring	-5428
oking	-5429
uance	-5430
ushed	-5431
▁Dhar	-5432
▁Have	-5433
▁Kish	-5434
▁Nand	-5435
▁Part	-5436
▁Rang	-5437
▁cast	-5438
▁dish	-5439
▁hall	-5440
▁mart	-5441
▁slow	-5442
▁soft	-5443
▁told	-5444
assion	-5445
formed	-5446
icated	-5447
illian	-5448
inging	-5449
iverse	-5450
ledged	-5451
ranked	-5452
▁Italy	-5453
▁Mount	-5454
▁NREGA	-5455
▁Remov	-5456
▁Sheth	-5457
▁coach	-5458
▁extra	-5459
▁games	-5460
▁milit	-5461
▁movie	-5462
▁noted	-5463
▁plans	-5464
▁spice	-5465
▁tells	-5466
▁theme	-5467
▁works	-5468
asualty	-5469
ctioned	-5470
ecutive	-5471
ikewise	-5472
ilinear	-5473
istrate	-5474
iversal	-5475
melting	-5476
mitting	-5477
ologist	-5478
oolwich	-5479
ository	-5480
ourcing	-5481
pecific	-5482
resents	-5483
ressive	-5484
rically	-5485
riminal	-5486
spended	-5487
ulatory	-5488
ussions	-5489
vantara	-5490
vesting	-5491
▁13(1)(	-5492
▁1997."	-5493
▁Aggreg	-5494
▁Angkor	-5495
▁Awards	-5496
▁Bendva	-5497
▁Bhagav	-5498
▁Center	-5499
Its	-5500
eva	-5501
hah	-5502
iro	-5503
roy	-5504
▁90	-5505
▁Ac	-5506
▁FC	-5507
▁Od	-5508
▁cy	-5509
-199	-5510
berc	-5511
imon	-5512
inap	-5513
inee	-5514
oked	-5515
pert	-5516
▁"""	-5517
▁Cap	-5518
▁bur	-5519
▁kid	-5520
▁lev	-5521
arish	-5522
heast	-5523
iable	-5524
point	-5525
quare	-5526
rence	-5527
style	-5528
urang	-5529
ussia	-5530
▁(193	-5531
▁2019	-5532
▁Card	-5533
▁Cast	-5534
▁Cult	-5535
▁Fort	-5536
▁Gath	-5537
▁HLLW	-5538
▁Jhar	-5539
▁Lord	-5540
▁Mass	-5541
▁Shah	-5542
▁cool	-5543
▁dign	-5544
▁lect	-5545
▁litt	-5546
▁mant	-5547
▁rank	-5548
▁seed	-5549
▁unav	-5550
▁vast	-5551
active	-5552
edical	-5553
illage	-5554
ivered	-5555
luding	-5556
retary	-5557
rowave	-5558
▁Stage	-5559
▁beach	-5560
▁dedic	-5561
▁plate	-5562
▁ragas	-5563
▁tight	-5564
assment	-5565
derived	-5566
ometres	-5567
ordance	-5568
▁Canada	-5569
▁Centre	-5570
▁Cesium	-5571
▁Charan	-5572
▁Chulha	-5573
▁Cinema	-5574
▁Course	-5575
▁Editor	-5576
▁Fering	-5577
▁Global	-5578
▁Golden	-5579
▁Greece	-5580
▁Howrah	-5581
▁Idiots	-5582
▁Jewish	-5583
▁Leader	-5584
▁London	-5585
▁Madhya	-5586
▁Madras	-5587
▁Mahila	-5588
▁Meerut	-5589
▁Mexico	-5590
▁Modern	-5591
▁Museum	-5592
▁Nameri	-5593
▁Nikita	-5594
▁Nothos	-5595
▁Pancha	-5596
▁Plants	-5597
▁Poland	-5598
▁Police	-5599
ii	-5600
1),	-5601
5."	-5602
7.5	-5603
Sub	-5604
aps	-5605
▁Ak	-5606
arya	-5607
geon	-5608
izer	-5609
urer	-5610
▁Gha	-5611
▁Sat	-5612
▁ice	-5613
▁pub	-5614
▁van	-5615
▁yet	-5616
Hence	-5617
eenth	-5618
essee	-5619
igned	-5620
inery	-5621
ismic	-5622
istry	-5623
licop	-5624
oride	-5625
ought	-5626
water	-5627
▁2000	-5628
▁2015	-5629
▁Home	-5630
▁Post	-5631
▁Sout	-5632
▁Stew	-5633
▁cens	-5634
▁coal	-5635
▁ease	-5636
▁shed	-5637
▁ship	-5638
▁unit	-5639
▁vice	-5640
anging	-5641
ellate	-5642
▁Chand	-5643
▁Rural	-5644
▁worth	-5645
acharya	-5646
growing	-5647
mentary	-5648
▁Action	-5649
▁Prasad	-5650
▁Public	-5651
▁Purana	-5652
▁Ramach	-5653
▁SENSEX	-5654
▁Salman	-5655
▁Stalin	-5656
▁Strait	-5657
▁Sydney	-5658
▁System	-5659
▁Taiwan	-5660
▁Turkey	-5661
▁Turkic	-5662
▁Valley	-5663
▁Yellow	-5664
▁aboard	-5665
▁acknow	-5666
▁actors	-5667
▁adding	-5668
▁advent	-5669
▁advise	-5670
▁agency	-5671
▁allows	-5672
▁always	-5673
▁ancest	-5674
▁annual	-5675
▁appeal	-5676
▁assass	-5677
▁assess	-5678
▁athlet	-5679
▁author	-5680
▁bamboo	-5681
▁basins	-5682
▁bigger	-5683
▁boards	-5684
▁breach	-5685
▁breath	-5686
▁bridge	-5687
▁budget	-5688
▁ceased	-5689
▁clouds	-5690
▁combat	-5691
▁conven	-5692
▁courts	-5693
▁crimes	-5694
▁cruise	-5695
▁damage	-5696
▁debate	-5697
▁defend	-5698
▁define	-5699
▁depart	-5700
▁desire	-5701
▁diesel	-5702
▁discus	-5703
▁doctor	-5704
▁dubbed	-5705
▁effort	-5706
▁emphas	-5707
▁enable	-5708
▁enroll	-5709
▁ensure	-5710
▁ethnic	-5711
▁failed	-5712
▁female	-5713
▁format	-5714
▁fruits	-5715
▁gentle	-5716
▁gently	-5717
▁grated	-5718
▁groves	-5719
▁guided	-5720
▁hammer	-5721
▁helium	-5722
▁hidden	-5723
▁houses	-5724
▁humans	-5725
▁hybrid	-5726
▁indeed	-5727
▁interf	-5728
▁issues	-5729
▁joined	-5730
▁labour	-5731
▁larger	-5732
▁latter	-5733
▁launch	-5734
▁layers	-5735
▁legisl	-5736
▁liquid	-5737
▁listed	-5738
▁little	-5739
▁marked	-5740
▁matter	-5741
▁medium	-5742
▁merely	-5743
▁merged	-5744
▁merger	-5745
▁method	-5746
▁middle	-5747
▁mobile	-5748
▁models	-5749
▁mutton	-5750
▁myster	-5751
▁nation	-5752
▁native	-5753
▁notice	-5754
▁offers	-5755
▁option	-5756
▁organs	-5757
▁origin	-5758
▁owners	-5759
▁oxygen	-5760
▁pelvic	-5761
▁pencil	-5762
▁petrol	-5763
▁pieces	-5764
▁powers	-5765
▁precip	-5766
▁presum	-5767
▁privat	-5768
▁profit	-5769
▁proved	-5770
▁purely	-5771
▁ranked	-5772
▁reason	-5773
▁rebell	-5774
▁refuse	-5775
▁reject	-5776
▁relies	-5777
▁remark	-5778
▁repent	-5779
▁routes	-5780
▁runoff	-5781
▁sacred	-5782
▁salary	-5783
▁saving	-5784
▁saying	-5785
▁school	-5786
▁search	-5787
▁seemed	-5788
▁serene	-5789
▁severe	-5790
▁shadow	-5791
▁shared	-5792
▁silent	-5793
▁slopes	-5794
▁solely	-5795
▁sounds	-5796
▁spaces	-5797
▁spoken	-5798
▁sports	-5799
▁starts	-5800
▁stated	-5801
▁steady	-5802
▁stream	-5803
▁strict	-5804
▁suited	-5805
▁superv	-5806
▁swords	-5807
▁tariff	-5808
▁tested	-5809
▁themes	-5810
▁theory	-5811
▁traces	-5812
▁treaty	-5813
▁trying	-5814
▁turned	-5815
▁valley	-5816
▁versus	-5817
▁vulgar	-5818
▁weekly	-5819
▁window	-5820
▁wooden	-5821
▁worker	-5822
Likewise	-5823
acedonia	-5824
aluation	-5825
ankshaft	-5826
attering	-5827
cellular	-5828
communic	-5829
emperate	-5830
erations	-5831
ervation	-5832
hettinad	-5833
imalayas	-5834
imension	-5835
inciples	-5836
iterated	-5837
liaments	-5838
olutions	-5839
omething	-5840
ospheric	-5841
regional	-5842
ructions	-5843
stration	-5844
tainment	-5845
unitions	-5846
unologic	-5847
vernance	-5848
vestment	-5849
▁(1999),	-5850
▁Airport	-5851
▁Appreci	-5852
▁Article	-5853
▁Asansol	-5854
▁Azerbai	-5855
▁Cabinet	-5856
▁Chakrav	-5857
▁Economy	-5858
▁Express	-5859
▁Finance	-5860
▁Florida	-5861
▁Germany	-5862
▁Hindust	-5863
▁Iranian	-5864
▁Islamic	-5865
▁Islands	-5866
▁Kashmir	-5867
▁Kearney	-5868
▁Kendras	-5869
▁Narapat	-5870
▁Nations	-5871
▁Natural	-5872
▁Officer	-5873
▁Olivier	-5874
▁Pallava	-5875
▁Princes	-5876
▁Reserve	-5877
▁Richard	-5878
▁Salalah	-5879
▁Samhita	-5880
▁Science	-5881
▁Speaker	-5882
▁Special	-5883
▁Syariah	-5884
▁Systems	-5885
▁Toshiba	-5886
▁Ukraine	-5887
▁Valmiki	-5888
▁acquire	-5889
▁adopted	-5890
▁advance	-5891
▁affairs	-5892
▁airport	-5893
▁ancient	-5894
▁anxiety	-5895
▁applies	-5896
▁arrival	-5897
▁arrived	-5898
▁article	-5899
▁assimil	-5900
▁attacks	-5901
▁average	-5902
▁bananas	-5903
▁barrier	-5904
▁beating	-5905
▁calling	-5906
▁carries	-5907
▁causing	-5908
▁centers	-5909
▁cheetah	-5910
▁cinemas	-5911
▁circuit	-5912
▁consent	-5913
▁consequ	-5914
▁contact	-5915
▁correct	-5916
▁corrupt	-5917
▁counsel	-5918
▁courses	-5919
▁culture	-5920
▁customs	-5921
▁defense	-5922
▁deliver	-5923
▁designs	-5924
▁desired	-5925
▁despite	-5926
▁destroy	-5927
▁devices	-5928
▁dignity	-5929
▁embargo	-5930
▁emerged	-5931
▁ensures	-5932
▁existed	-5933
▁extreme	-5934
▁federal	-5935
▁females	-5936
▁finding	-5937
▁fission	-5938
▁forming	-5939
▁founded	-5940
▁fringes	-5941
▁furnace	-5942
▁generic	-5943
▁granted	-5944
▁heavily	-5945
▁helicop	-5946
▁herself	-5947
▁hitting	-5948
▁holding	-5949
▁housebo	-5950
▁immense	-5951
▁inflamm	-5952
▁initial	-5953
▁inquiry	-5954
▁instead	-5955
▁intense	-5956
▁introdu	-5957
▁keepers	-5958
▁keeping	-5959
▁learned	-5960
▁leaving	-5961
▁license	-5962
▁loyalty	-5963
▁machine	-5964
▁married	-5965
▁martial	-5966
▁matters	-5967
▁mesophy	-5968
▁monsoon	-5969
▁morning	-5970
▁multipl	-5971
▁nominee	-5972
▁objects	-5973
▁offense	-5974
▁opposed	-5975
▁optical	-5976
▁options	-5977
▁ordered	-5978
▁overall	-5979
▁package	-5980
▁partial	-5981
▁passage	-5982
▁patient	-5983
▁pattern	-5984
▁perfect	-5985
▁perhaps	-5986
▁pointed	-5987
▁polymer	-5988
▁precise	-5989
▁premium	-5990
▁preserv	-5991
▁privacy	-5992
▁promote	-5993
▁propose	-5994
▁protect	-5995
▁protein	-5996
▁provide	-5997
▁prudent	-5998
▁pushing	-5999
▁quarter	-6000
▁railway	-6001
▁ratings	-6002
▁receipt	-6003
▁recipes	-6004
▁recover	-6005
▁remains	-6006
▁remarks	-6007
▁removed	-6008
▁resorts	-6009
▁results	-6010
▁revered	-6011
▁roughly	-6012
▁scholar	-6013
▁science	-6014
▁scoring	-6015
▁seaport	-6016
▁sectors	-6017
▁seeking	-6018
▁seismic	-6019
▁sending	-6020
▁someone	-6021
▁stepped	-6022
▁stomach	-6023
▁storage	-6024
▁stories	-6025
▁studies	-6026
▁thereby	-6027
▁tournam	-6028
▁traffic	-6029
▁trained	-6030
▁typical	-6031
▁vaccine	-6032
▁vehicle	-6033
▁voltage	-6034
▁weapons	-6035
▁welfare	-6036
▁winners	-6037
▁wonders	-6038
▁writing	-6039
President	-6040
Similarly	-6041
ashington	-6042
continent	-6043
ependence	-6044
ilization	-6045
inization	-6046
rehensive	-6047
stitution	-6048
▁Administ	-6049
▁Airyamna	-6050
▁Amritsar	-6051
▁Balipara	-6052
▁Buddhist	-6053
▁Cawnpore	-6054
▁Chairman	-6055
▁Chapters	-6056
▁Councils	-6057
▁Director	-6058
▁District	-6059
▁Exchange	-6060
▁Filmfare	-6061
▁Hamilton	-6062
▁Heritage	-6063
▁Internet	-6064
▁Iranians	-6065
▁Karaikal	-6066
▁Kauravas	-6067
▁Khartoum	-6068
▁Maharaja	-6069
▁Mahotsav	-6070
▁Malaysia	-6071
▁Northern	-6072
▁Officers	-6073
▁Olympian	-6074
▁Olympics	-6075
▁Passport	-6076
▁Raghavan	-6077
▁Rastriya	-6078
▁Reginald	-6079
▁Schedule	-6080
▁Sections	-6081
▁Services	-6082
▁Shankara	-6083
▁Wildlife	-6084
▁absorbed	-6085
▁academic	-6086
▁accounts	-6087
▁advanced	-6088
▁aircraft	-6089
▁allocate	-6090
▁alluvial	-6091
▁altitude	-6092
▁apparent	-6093
▁arranged	-6094
▁artistic	-6095
▁assembly	-6096
▁assigned	-6097
▁attempts	-6098
▁awakened	-6099
▁bacteria	-6100
▁borrowed	-6101
▁brothers	-6102
▁capacity	-6103
▁captured	-6104
▁carrying	-6105
▁cellular	-6106
▁champion	-6107
▁changing	-6108
▁churches	-6109
▁commonly	-6110
▁complete	-6111
▁connects	-6112
▁consists	-6113
▁contempl	-6114
▁criminal	-6115
▁currents	-6116
▁deceased	-6117
▁decrease	-6118
▁defeated	-6119
▁devotion	-6120
▁directed	-6121
▁disposed	-6122
▁distress	-6123
▁district	-6124
▁division	-6125
▁donation	-6126
▁eighteen	-6127
▁election	-6128
▁elephant	-6129
▁enclosed	-6130
▁entering	-6131
▁evidence	-6132
▁expanded	-6133
▁families	-6134
▁favoured	-6135
▁featured	-6136
▁fighters	-6137
▁finished	-6138
▁focusing	-6139
▁foremost	-6140
▁function	-6141
▁gathered	-6142
▁governed	-6143
▁greatest	-6144
▁heatwave	-6145
▁heavenly	-6146
▁hierarch	-6147
▁humidity	-6148
▁identity	-6149
▁imagined	-6150
▁implants	-6151
▁informed	-6152
▁insisted	-6153
▁internal	-6154
▁internet	-6155
▁interpre	-6156
▁literacy	-6157
▁literary	-6158
▁measured	-6159
▁measures	-6160
▁millions	-6161
▁minister	-6162
▁modified	-6163
▁molecule	-6164
▁monument	-6165
▁mystical	-6166
▁numerous	-6167
▁opponent	-6168
▁opportun	-6169
▁original	-6170
▁outcomes	-6171
▁pandemic	-6172
▁paradise	-6173
▁particle	-6174
▁patients	-6175
▁payments	-6176
▁planning	-6177
▁platform	-6178
▁pressure	-6179
▁priority	-6180
▁producer	-6181
▁produces	-6182
▁programs	-6183
▁promised	-6184
▁property	-6185
▁proposal	-6186
▁proposed	-6187
▁provides	-6188
▁pudendal	-6189
▁purchase	-6190
▁receptor	-6191
▁recorded	-6192
▁reflects	-6193
▁refugees	-6194
▁register	-6195
▁relative	-6196
▁restrict	-6197
▁retained	-6198
▁rotation	-6199
▁seasonal	-6200
▁situated	-6201
▁soreness	-6202
▁stations	-6203
▁stopping	-6204
▁substant	-6205
▁suitable	-6206
▁tampered	-6207
▁teaching	-6208
▁template	-6209
▁territor	-6210
▁textiles	-6211
▁thriller	-6212
▁training	-6213
▁universe	-6214
▁valuable	-6215
▁vascular	-6216
▁visually	-6217
▁volcanic	-6218
▁wildlife	-6219
Originally	-6220
containing	-6221
government	-6222
ifications	-6223
ignificant	-6224
imicrobial	-6225
sufficient	-6226
▁Anchorage	-6227
▁Australia	-6228
▁Bhagavata	-6229
▁Bharatiya	-6230
▁Cambridge	-6231
▁Confucian	-6232
▁Edgeworth	-6233
▁Education	-6234
▁Executive	-6235
▁Feringhis	-6236
▁Francisco	-6237
▁Himalayas	-6238
▁Hollywood	-6239
▁Indonesia	-6240
▁Kapitayan	-6241
▁Khaganate	-6242
▁Liquidity	-6243
▁Macedonia	-6244
▁Parishads	-6245
▁Presiding	-6246
▁Professor	-6247
▁Programme	-6248
▁Secretary	-6249
▁Southeast	-6250
▁affecting	-6251
▁algorithm	-6252
▁arguments	-6253
▁ascertain	-6254
▁associate	-6255
▁awareness	-6256
▁beautiful	-6257
▁calorific	-6258
▁carefully	-6259
▁chemicals	-6260
▁cinematic	-6261
▁classical	-6262
▁committee	-6263
▁competent	-6264
▁computing	-6265
▁concluded	-6266
▁condemned	-6267
▁connected	-6268
▁consisted	-6269
▁continues	-6270
▁creatures	-6271
▁customers	-6272
▁dedicated	-6273
▁defensive	-6274
▁democracy	-6275
▁depicting	-6276
▁direction	-6277
▁disciples	-6278
▁displaced	-6279
▁districts	-6280
▁diversity	-6281
▁divisions	-6282
▁documents	-6283
▁downwards	-6284
▁dribbling	-6285
▁ecosystem	-6286
▁education	-6287
▁efficient	-6288
▁elaborate	-6289
▁elections	-6290
▁elephants	-6291
▁employees	-6292
▁entrusted	-6293
▁equipment	-6294
▁equitable	-6295
▁essential	-6296
▁examining	-6297
▁excessive	-6298
▁exclusive	-6299
▁expanding	-6300
▁explained	-6301
▁functions	-6302
▁happiness	-6303
▁hospitals	-6304
▁incentive	-6305
▁increases	-6306
▁indicates	-6307
▁influenza	-6308
▁initially	-6309
▁insurance	-6310
▁intention	-6311
▁interpret	-6312
▁intricate	-6313
▁machinery	-6314
▁materials	-6315
▁medicines	-6316
▁mentioned	-6317
▁milestone	-6318
▁molecules	-6319
▁monuments	-6320
▁mountains	-6321
▁municipal	-6322
▁neighbour	-6323
▁objection	-6324
▁offensive	-6325
▁operating	-6326
▁operation	-6327
▁otherwise	-6328
▁pathogens	-6329
▁patronage	-6330
▁performed	-6331
▁permanent	-6332
▁petroleum	-6333
▁philosoph	-6334
▁photograp	-6335
▁practices	-6336
▁prisoners	-6337
▁procedure	-6338
▁processed	-6339
▁protected	-6340
▁providers	-6341
▁published	-6342
▁recommend	-6343
▁reference	-6344
▁referring	-6345
▁regarding	-6346
▁regularly	-6347
▁residence	-6348
▁safeguard	-6349
▁scheduled	-6350
▁secondary	-6351
▁sensation	-6352
▁sensitive	-6353
▁sequences	-6354
▁shoreline	-6355
▁stability	-6356
▁statutory	-6357
▁structure	-6358
▁subsidies	-6359
▁suspended	-6360
▁synthesis	-6361
▁temporary	-6362
▁territory	-6363
▁transport	-6364
▁treatment	-6365
▁unsheathe	-6366
▁variables	-6367
▁varieties	-6368
▁vegetable	-6369
▁verifying	-6370
▁waterways	-6371
Electronics	-6372
otechnology	-6373
urveillance	-6374
▁Azerbaijan	-6375
▁Bangladesh	-6376
▁California	-6377
▁Conference	-6378
▁Department	-6379
▁Godabarish	-6380
▁Homeopathy	-6381
▁Portuguese	-6382
▁Psychiatry	-6383
▁Revolution	-6384
▁University	-6385
▁Volleyball	-6386
▁accordance	-6387
▁accounting	-6388
▁amplifiers	-6389
▁applicable	-6390
▁backwaters	-6391
▁beneficial	-6392
▁biological	-6393
▁businesses	-6394
▁censorship	-6395
▁characters	-6396
▁classified	-6397
▁cognizable	-6398
▁commanders	-6399
▁commission	-6400
▁comparable	-6401
▁compassion	-6402
▁completing	-6403
▁completion	-6404
▁composites	-6405
▁confidence	-6406
▁containing	-6407
▁continuous	-6408
▁controvers	-6409
▁convention	-6410
▁crankshaft	-6411
▁cultivated	-6412
▁definition	-6413
▁difference	-6414
▁economists	-6415
▁ecosystems	-6416
▁electronic	-6417
▁eliminated	-6418
▁employment	-6419
▁encouraged	-6420
▁especially	-6421
▁explaining	-6422
▁expressing	-6423
▁filmmakers	-6424
▁frequently	-6425
▁goalkeeper	-6426
▁harassment	-6427
▁highlights	-6428
▁historical	-6429
▁households	-6430
▁identified	-6431
▁importance	-6432
▁indirectly	-6433
▁inequality	-6434
▁influences	-6435
▁integrated	-6436
▁intestines	-6437
▁irrigation	-6438
▁kilometres	-6439
▁manvantara	-6440
▁mechanisms	-6441
▁millennium	-6442
▁monitoring	-6443
▁narratives	-6444
▁observance	-6445
▁opposition	-6446
▁particular	-6447
▁perfection	-6448
▁petitioner	-6449
▁pharmaceut	-6450
▁population	-6451
▁precession	-6452
▁profession	-6453
▁projection	-6454
▁regularity	-6455
▁regulation	-6456
▁regulatory	-6457
▁represents	-6458
▁respondent	-6459
▁rhinoceros	-6460
▁sanctioned	-6461
▁separately	-6462
▁strategies	-6463
▁structural	-6464
▁subdivided	-6465
▁succession	-6466
▁suggesting	-6467
▁technology	-6468
▁vegetarian	-6469
▁volatility	-6470
communicable	-6471
governmental	-6472
▁Aggregators	-6473
▁Biomedicine	-6474
▁Engineering	-6475
▁Enterprises	-6476
▁Environment	-6477
▁Mahabharata	-6478
▁Parliaments	-6479
▁Prajatantra	-6480
▁Ramachandra	-6481
▁accommodate	-6482
▁acquisition	-6483
▁alternative	-6484
▁atmospheric	-6485
▁certificate	-6486
▁competition	-6487
▁composition	-6488
▁conflicting	-6489
▁continental	-6490
▁contracting	-6491
▁cooperative	-6492
▁curvilinear	-6493
▁delineation	-6494
▁derivatives	-6495
▁differences	-6496
▁disciplines	-6497
▁distributed	-6498
▁individuals	-6499
▁instruction	-6500
▁integration	-6501
▁investments	-6502
▁operational	-6503
▁plantations	-6504
▁possibility	-6505
▁potentially	-6506
▁recognition	-6507
▁reflectance	-6508
▁replacement	-6509
▁respiratory	-6510
▁responsible	-6511
▁surrounding	-6512
▁televisions	-6513
▁territories	-6514
▁transparent	-6515
▁troposphere	-6516
▁unavoidable	-6517
emiconductors	-6518
▁Appreciation	-6519
▁Organization	-6520
▁acknowledged	-6521
▁alkalization	-6522
▁alternatives	-6523
▁arrangements	-6524
▁attributable	-6525
▁breathtaking	-6526
▁broadcasting	-6527
▁compositions	-6528
▁consequences	-6529
▁conservation	-6530
▁corporations	-6531
▁destinations	-6532
▁humanitarian	-6533
▁implementing	-6534
▁instructions	-6535
▁interactions	-6536
▁jurisdiction	-6537
▁maintainable	-6538
▁multilateral	-6539
▁organisation	-6540
▁participated	-6541
▁radioisotope	-6542
▁reductionism	-6543
▁representing	-6544
▁stakeholders	-6545
▁subsequently	-6546
▁sufficiently	-6547
▁technologies	-6548
▁terminations	-6549
▁unreasonable	-6550
▁comprehensive	-6551
▁demonstration	-6552
▁effectiveness	-6553
▁entrepreneurs	-6554
▁establishment	-6555
▁jurisdictions	-6556
▁parliamentary	-6557
▁precipitation	-6558
▁privatization	-6559
▁significantly	-6560
▁socioeconomic	-6561
▁traditionally	-6562
▁Administrative	-6563
▁Infrastructure	-6564
▁considerations	-6565
▁demonstrations	-6566
▁implementation	-6567
▁pharmaceutical	-6568
▁responsibility	-6569
▁internationally	-6570
▁recommendations	-6571
.8%	-6572
24)	-6573
BOR	-6574
ECB	-6575
ERI	-6576
GMO	-6577
HCl	-6578
LED	-6579
MPs	-6580
PPP	-6581
VCs	-6582
afy	-6583
iii	-6584
▁02	-6585
$7.2	-6586
$7.7	-6587
2,55	-6588
25),	-6589
4%),	-6590
7.5-	-6591
87),	-6592
Arms	-6593
CICs	-6594
Cont	-6595
DEEP	-6596
DHGA	-6597
ECBs	-6598
ERIY	-6599
2-6	-6600
ALC	-6601
CDs	-6602
FGC	-6603
ICI	-6604
MDS	-6605
▁$3	-6606
ALCO	-6607
CMDS	-6608
Equi	-6609
GAIL	-6610
Gwal	-6611
Mizo	-6612
NCDs	-6613
Phot	-6614
Pont	-6615
Siem	-6616
Soil	-6617
TERS	-6618
abba	-6619
aluk	-6620
anhu	-6621
cott	-6622
feed	-6623
hamm	-6624
horr	-6625
ipta	-6626
laws	-6627
pcot	-6628
thwa	-6629
uanz	-6630
umni	-6631
▁028	-6632
▁26%	-6633
▁33%	-6634
▁377	-6635
▁4.2	-6636
▁409	-6637
▁430	-6638
▁440	-6639
▁46°	-6640
▁5-6	-6641
▁5.8	-6642
▁801	-6643
▁82-	-6644
▁857	-6645
▁ATI	-6646
▁CDH	-6647
▁CRS	-6648
▁GEO	-6649
▁HIV	-6650
▁Hsi	-6651
▁IPD	-6652
▁ITF	-6653
▁LED	-6654
▁NCD	-6655
▁NSD	-6656
▁OPD	-6657
▁Rao	-6658
▁SES	-6659
▁UPI	-6660
▁UTI	-6661
▁WHO	-6662
-1980	-6663
.2020	-6664
0,600	-6665
2,500	-6666
2,555	-6667
2020.	-6668
ATERS	-6669
Adapt	-6670
Armed	-6671
DALCO	-6672
Fatma	-6673
Gener	-6674
Mahon	-6675
NREGA	-6676
Photo	-6677
Ratan	-6678
Rhine	-6679
Semen	-6680
adevo	-6681
aimed	-6682
alukp	-6683
anmar	-6684
apuri	-6685
ayeen	-6686
being	-6687
dwara	-6688
einor	-6689
endhu	-6690
eople	-6691
ersey	-6692
habil	-6693
horiz	-6694
hythm	-6695
idevo	-6696
illeg	-6697
illem	-6698
iopia	-6699
baaz	-6700
iopol	-6701
iroud	-6702
irths	-6703
ishnu	-6704
jiang	-6705
konda	-6706
kotai	-6707
kumar	-6708
latan	-6709
litre	-6710
ojini	-6711
orped	-6712
rehma	-6713
rizon	-6714
rrito	-6715
scape	-6716
sthma	-6717
straZ	-6718
teiro	-6719
thmus	-6720
toler	-6721
uberc	-6722
unsmu	-6723
varas	-6724
varup	-6725
vitre	-6726
xicon	-6727
▁($21	-6728
▁(18%	-6729
▁(20%	-6730
▁(390	-6731
▁(46,	-6732
▁(49%	-6733
▁1,35	-6734
▁1077	-6735
▁1265	-6736
▁1885	-6737
▁1945	-6738
▁49.1	-6739
▁50%.	-6740
▁6.4.	-6741
▁Acad	-6742
▁Alex	-6743
▁Atte	-6744
▁BPLR	-6745
▁Dadl	-6746
▁Dhol	-6747
▁Dhru	-6748
▁Dwar	-6749
▁ECDC	-6750
▁GVCs	-6751
▁Ghaz	-6752
▁Glou	-6753
▁Henk	-6754
▁Hsie	-6755
▁Jamd	-6756
▁Kald	-6757
▁Karl	-6758
▁MAIL	-6759
▁MIDC	-6760
▁Maws	-6761
▁Neha	-6762
▁Odia	-6763
▁Only	-6764
▁Padm	-6765
▁Peri	-6766
▁Prem	-6767
▁Puri	-6768
▁RMPs	-6769
▁SAIL	-6770
▁Sulf	-6771
▁bulk	-6772
▁craf	-6773
▁cudg	-6774
▁dogs	-6775
▁fanb	-6776
▁haem	-6777
▁jobs	-6778
▁keyn	-6779
▁padd	-6780
▁ripp	-6781
▁sacr	-6782
▁tabo	-6783
▁turt	-6784
▁twel	-6785
▁verd	-6786
▁waza	-6787
.2020,	-6788
2004),	-6789
5.2019	-6790
Ajanta	-6791
BODHGA	-6792
Cherry	-6793
ERIYAR	-6794
Equipe	-6795
Fodder	-6796
NDALCO	-6797
People	-6798
WATERS	-6799
UTC	-6800
deva	-6801
ruti	-6802
▁Adwa	-6803
▁Sahu	-6804
▁Sahy	-6805
▁flux	-6806
▁puts	-6807
▁seni	-6808
▁trem	-6809
Mental	-6810
aggage	-6811
agraha	-6812
amaica	-6813
anagar	-6814
annica	-6815
ansiri	-6816
anthan	-6817
arnett	-6818
aryleb	-6819
avalli	-6820
avjian	-6821
backed	-6822
bandry	-6823
batant	-6824
bhakti	-6825
biolet	-6826
brrito	-6827
ceania	-6828
chiatr	-6829
colour	-6830
ediate	-6831
espite	-6832
essend	-6833
esseps	-6834
growth	-6835
hammad	-6836
hanraj	-6837
hypert	-6838
iananm	-6839
ietone	-6840
ilbert	-6841
ilicon	-6842
iphany	-6843
ipping	-6844
ishtha	-6845
judice	-6846
loride	-6847
lusive	-6848
mainly	-6849
masked	-6850
modern	-6851
moured	-6852
ogenic	-6853
omware	-6854
onette	-6855
opades	-6856
ormula	-6857
osynov	-6858
oupled	-6859
ournal	-6860
oycott	-6861
people	-6862
picked	-6863
points	-6864
riathl	-6865
school	-6866
square	-6867
summer	-6868
udgate	-6869
udiram	-6870
ukotai	-6871
umbled	-6872
ushrut	-6873
utonom	-6874
varupa	-6875
▁(1917	-6876
▁(1977	-6877
▁(1985	-6878
▁(20%)	-6879
▁(49%)	-6880
▁1824,	-6881
▁2013'	-6882
▁2022.	-6883
▁32.14	-6884
▁47.5-	-6885
▁Abbas	-6886
▁Agung	-6887
▁Basil	-6888
▁Bhaji	-6889
▁Binap	-6890
▁Bruns	-6891
▁Busan	-6892
▁Dadar	-6893
▁David	-6894
▁Direc	-6895
▁Epcot	-6896
▁Fairb	-6897
▁Feren	-6898
▁Force	-6899
Coll	-6900
afer	-6901
olls	-6902
▁McN	-6903
▁Myn	-6904
▁Myp	-6905
▁Mys	-6906
▁zer	-6907
alows	-6908
ophag	-6909
pathy	-6910
sidal	-6911
ulses	-6912
▁2500	-6913
▁Drif	-6914
▁Ghur	-6915
▁Swed	-6916
▁doll	-6917
▁vows	-6918
agogic	-6919
atomic	-6920
graded	-6921
itrary	-6922
lameda	-6923
leizes	-6924
onomic	-6925
psidal	-6926
ulsion	-6927
victed	-6928
▁1929,	-6929
▁Angul	-6930
▁Arjan	-6931
▁Drury	-6932
▁Forum	-6933
▁Ghazn	-6934
▁Gotab	-6935
▁Guter	-6936
▁Habba	-6937
▁Harsh	-6938
▁Hsieh	-6939
▁Innes	-6940
▁Jagad	-6941
▁Jhapa	-6942
▁Kalki	-6943
▁Kamch	-6944
▁Kanhu	-6945
▁Kasam	-6946
▁Kathy	-6947
▁Kaund	-6948
▁Koech	-6949
▁Levin	-6950
▁MSMEs	-6951
▁Magat	-6952
▁Mawsm	-6953
▁Mesop	-6954
▁Midan	-6955
▁Mynen	-6956
▁Naush	-6957
▁Panig	-6958
▁Panna	-6959
▁Periy	-6960
▁Postg	-6961
▁Punia	-6962
▁Samex	-6963
▁Shire	-6964
▁Sitar	-6965
▁Solom	-6966
▁Sumat	-6967
▁Trans	-6968
▁Uttam	-6969
▁Uttar	-6970
▁adjud	-6971
▁agony	-6972
▁ambig	-6973
▁ambit	-6974
▁birds	-6975
▁bleed	-6976
▁blend	-6977
▁bowel	-6978
▁caste	-6979
▁chips	-6980
▁clean	-6981
▁crack	-6982
▁datas	-6983
▁drink	-6984
▁empow	-6985
▁error	-6986
▁escap	-6987
▁fifth	-6988
▁figur	-6989
▁flora	-6990
▁frame	-6991
▁gradu	-6992
▁gridl	-6993
▁holds	-6994
▁holid	-6995
▁illeg	-6996
▁jewel	-6997
▁laser	-6998
▁looks	-6999
776	-7000
FAN	-7001
RNA	-7002
,776	-7003
76).	-7004
769,	-7005
OFAN	-7006
Tech	-7007
What	-7008
aheb	-7009
eida	-7010
mRNA	-7011
nada	-7012
viol	-7013
whel	-7014
▁6.5	-7015
▁DNA	-7016
▁SME	-7017
▁Suv	-7018
-1976	-7019
376).	-7020
6-199	-7021
769,4	-7022
OOFAN	-7023
abhat	-7024
ethle	-7025
ettuv	-7026
hajan	-7027
helie	-7028
helse	-7029
idhan	-7030
ihadi	-7031
ihole	-7032
ilika	-7033
juice	-7034
▁Chet	-7035
▁Dahe	-7036
▁Gada	-7037
▁Misc	-7038
▁tabl	-7039
06-199	-7040
19,776	-7041
769,44	-7042
Bhajan	-7043
Jihadi	-7044
Kettuv	-7045
asaheb	-7046
astika	-7047
ctuary	-7048
hanced	-7049
helsea	-7050
irmala	-7051
ravida	-7052
ubeida	-7053
▁Artax	-7054
▁Chaba	-7055
▁Dahej	-7056
▁Jammu	-7057
▁Walis	-7058
▁maize	-7059
▁marty	-7060
▁misin	-7061
▁mobil	-7062
▁moved	-7063
▁nihil	-7064
▁ninth	-7065
▁panel	-7066
▁persu	-7067
▁phara	-7068
▁pitch	-7069
▁polyg	-7070
▁premi	-7071
▁rocks	-7072
▁scoop	-7073
▁sects	-7074
▁seedl	-7075
▁seems	-7076
▁shift	-7077
▁shipb	-7078
▁ships	-7079
▁sleet	-7080
▁slowd	-7081
▁slums	-7082
▁sorgh	-7083
▁strik	-7084
▁strip	-7085
▁sumpt	-7086
▁swift	-7087
▁taboo	-7088
▁tenth	-7089
▁towns	-7090
▁trips	-7091
▁trium	-7092
▁twent	-7093
▁unrec	-7094
▁vasta	-7095
▁wafer	-7096
▁waist	-7097
▁yogic	-7098
769,442	-7099
▁ECM	-7100
▁Mizo	-7101
▁levy	-7102
▁mixt	-7103
▁nuts	-7104
Muslim	-7105
Others	-7106
United	-7107
billed	-7108
killed	-7109
▁Esper	-7110
▁cardi	-7111
▁lying	-7112
▁optim	-7113
▁polls	-7114
▁synov	-7115
▁topso	-7116
BODHGAY	-7117
Despite	-7118
Equally	-7119
Gwalior	-7120
Lanthan	-7121
PERIYAR	-7122
Russian	-7123
Sandams	-7124
Sandans	-7125
Subsequ	-7126
Without	-7127
achanas	-7128
achidan	-7129
ackburn	-7130
anmohan	-7131
armavid	-7132
astinap	-7133
athlons	-7134
athroom	-7135
aurants	-7136
avjiani	-7137
ayfront	-7138
banding	-7139
bitrary	-7140
cipline	-7141
collect	-7142
ctuated	-7143
dicated	-7144
eespert	-7145
einorin	-7146
erosols	-7147
errence	-7148
ettling	-7149
factory	-7150
federal	-7151
friends	-7152
havalli	-7153
horizon	-7154
hythmic	-7155
ichelie	-7156
icitous	-7157
ifiable	-7158
ihilate	-7159
imachal	-7160
impress	-7161
inforce	-7162
ingshot	-7163
ladeshi	-7164
leviate	-7165
lighten	-7166
longest	-7167
ludgeon	-7168
ogenous	-7169
onymous	-7170
orously	-7171
pulsive	-7172
ramanas	-7173
raphics	-7174
riedhel	-7175
riptive	-7176
ripture	-7177
silicon	-7178
straZen	-7179
surance	-7180
ubercul	-7181
uctions	-7182
ueprint	-7183
ushruta	-7184
ustrial	-7185
yagraha	-7186
▁(1916-	-7187
▁(1985)	-7188
▁(2019)	-7189
▁(34%),	-7190
▁100'."	-7191
▁1077."	-7192
▁1912-6	-7193
▁1931."	-7194
▁1934),	-7195
▁1975."	-7196
▁20,000	-7197
▁2001."	-7198
▁2016."	-7199
guit	-7200
holt	-7201
▁35°	-7202
aystr	-7203
rugby	-7204
▁1963	-7205
▁Akay	-7206
▁Burk	-7207
▁Japu	-7208
▁Mali	-7209
▁Marc	-7210
▁Phal	-7211
▁aids	-7212
▁doub	-7213
▁loud	-7214
araman	-7215
edanta	-7216
guitar	-7217
ichols	-7218
iduous	-7219
ilesia	-7220
itably	-7221
lecast	-7222
ptiles	-7223
▁1960,	-7224
▁Banda	-7225
▁Chaud	-7226
▁Chaup	-7227
▁Class	-7228
▁Nagoy	-7229
▁Panda	-7230
▁Phase	-7231
▁Ranch	-7232
▁Rules	-7233
▁Samav	-7234
▁Wales	-7235
▁aimed	-7236
▁argue	-7237
▁fatty	-7238
▁harsh	-7239
▁males	-7240
▁panch	-7241
▁parks	-7242
▁scuba	-7243
aughlin	-7244
control	-7245
ordholt	-7246
rawaddy	-7247
vertise	-7248
▁1963),	-7249
▁2021."	-7250
▁22(1)(	-7251
▁22,555	-7252
▁32.12,	-7253
▁50,000	-7254
▁Access	-7255
▁Ajanta	-7256
▁Akayes	-7257
▁Alaska	-7258
▁Animal	-7259
▁Arbaaz	-7260
▁Ashoka	-7261
▁Attend	-7262
▁Atwood	-7263
▁Babita	-7264
▁Ballet	-7265
▁Behera	-7266
▁Brunsw	-7267
▁Butler	-7268
▁Cambod	-7269
▁Cardio	-7270
▁Caystr	-7271
▁Confed	-7272
▁Dennis	-7273
▁Deputy	-7274
▁Diplom	-7275
▁DirecT	-7276
▁Dunsmu	-7277
▁Excise	-7278
▁Ferenc	-7279
▁France	-7280
▁Gathas	-7281
▁Ghurid	-7282
▁Giroud	-7283
▁Gotama	-7284
▁Income	-7285
▁Jaipur	-7286
▁Jantar	-7287
▁Kaldor	-7288
▁Kamles	-7289
▁Kapoor	-7290
▁Khatau	-7291
▁Kishor	-7292
▁Liquef	-7293
▁Majors	-7294
▁Marcia	-7295
▁Mental	-7296
▁Middle	-7297
▁Miller	-7298
▁Morgan	-7299
.03	-7300
4.7	-7301
914	-7302
:14	-7303
ARM	-7304
ARS	-7305
BEE	-7306
CSS	-7307
RES	-7308
URE	-7309
boo	-7310
.07.	-7311
.1.4	-7312
0.03	-7313
4.7%	-7314
9%),	-7315
ARMA	-7316
BEES	-7317
BSNL	-7318
CURE	-7319
MARS	-7320
Plin	-7321
bohy	-7322
booi	-7323
eurs	-7324
▁CII	-7325
▁Xva	-7326
$0.03	-7327
Pliny	-7328
bohyd	-7329
boost	-7330
borne	-7331
hekar	-7332
karam	-7333
karas	-7334
olicy	-7335
▁1314	-7336
▁600,	-7337
▁Echt	-7338
▁Vagh	-7339
▁mega	-7340
.07.20	-7341
alekar	-7342
aptive	-7343
coming	-7344
ginity	-7345
ongols	-7346
oueurs	-7347
policy	-7348
▁1,914	-7349
▁1.1.4	-7350
▁20:14	-7351
▁74.7%	-7352
▁Javan	-7353
▁KARMA	-7354
▁smoke	-7355
▁think	-7356
.07.202	-7357
hikaram	-7358
ployees	-7359
utonium	-7360
▁($0.03	-7361
▁(39%),	-7362
▁(46,24	-7363
▁Murray	-7364
▁Myneni	-7365
▁Mypadu	-7366
▁Nagoya	-7367
▁Namami	-7368
▁Nanded	-7369
▁Online	-7370
▁Palace	-7371
▁Papaya	-7372
▁Partie	-7373
▁Rajkot	-7374
▁Recent	-7375
▁Rescue	-7376
▁Sahith	-7377
▁Samant	-7378
▁Sameer	-7379
▁School	-7380
▁Seljuk	-7381
▁Shaman	-7382
▁Shruti	-7383
▁Solano	-7384
▁Suvarn	-7385
▁Svaras	-7386
▁Swaraj	-7387
▁Travel	-7388
▁Trials	-7389
▁Ukrain	-7390
▁Walnut	-7391
▁Xvaitu	-7392
▁academ	-7393
▁aggreg	-7394
▁alumni	-7395
▁archer	-7396
▁argues	-7397
▁artery	-7398
▁atomic	-7399
zgi	-7400
800,	-7401
dden	-7402
ilkha	-7403
ruzgi	-7404
▁Disp	-7405
▁Manm	-7406
▁Mano	-7407
▁Paks	-7408
▁Polk	-7409
▁dupl	-7410
▁limb	-7411
Milkha	-7412
inagar	-7413
rectal	-7414
▁Block	-7415
▁Manas	-7416
▁Manoj	-7417
▁Ramaj	-7418
▁Ramak	-7419
▁Shiks	-7420
▁cells	-7421
▁limit	-7422
▁preca	-7423
▁viral	-7424
800,000	-7425
faction	-7426
imental	-7427
outhern	-7428
rinagar	-7429
visions	-7430
▁Bruzgi	-7431
▁Ganges	-7432
▁Pakshi	-7433
▁banana	-7434
▁banned	-7435
▁batted	-7436
▁beware	-7437
▁bhakti	-7438
▁blackb	-7439
▁bowled	-7440
▁burger	-7441
▁carbon	-7442
▁carpet	-7443
▁casual	-7444
▁cataly	-7445
▁ceases	-7446
▁choice	-7447
▁clocks	-7448
▁coping	-7449
▁crafts	-7450
▁cudgel	-7451
▁cyberc	-7452
▁danger	-7453
▁defeat	-7454
▁dialog	-7455
▁dissip	-7456
▁divide	-7457
▁doubts	-7458
▁earned	-7459
▁easier	-7460
▁easily	-7461
▁elimin	-7462
▁empire	-7463
▁encaps	-7464
▁excell	-7465
▁filled	-7466
▁filter	-7467
▁flashy	-7468
▁fluctu	-7469
▁fought	-7470
▁hairst	-7471
▁halted	-7472
▁hazard	-7473
▁hepato	-7474
▁honour	-7475
▁hosted	-7476
▁hotels	-7477
▁hydrol	-7478
▁injury	-7479
▁inspir	-7480
▁irresp	-7481
▁jewell	-7482
▁kidney	-7483
▁lasers	-7484
▁lasted	-7485
▁laying	-7486
▁levied	-7487
▁licens	-7488
▁looked	-7489
▁losses	-7490
▁massac	-7491
▁masses	-7492
▁mauled	-7493
▁microb	-7494
▁militi	-7495
▁millim	-7496
▁misrep	-7497
▁misses	-7498
▁months	-7499
alms	-7500
▁(2)	-7501
▁222	-7502
▁dyn	-7503
Paddy	-7504
bills	-7505
proot	-7506
proto	-7507
uided	-7508
▁(100	-7509
▁(2.1	-7510
▁(210	-7511
▁(3),	-7512
▁1934	-7513
▁Hope	-7514
▁Trim	-7515
▁arca	-7516
▁boys	-7517
aratha	-7518
atitud	-7519
avirus	-7520
guided	-7521
mitabh	-7522
protoz	-7523
reamed	-7524
severe	-7525
vereig	-7526
▁1931.	-7527
▁1956,	-7528
▁Bangk	-7529
▁Benef	-7530
▁Catal	-7531
▁Chuck	-7532
▁Greet	-7533
▁Grove	-7534
▁Japji	-7535
▁Meath	-7536
▁Pream	-7537
▁brave	-7538
▁drive	-7539
▁dying	-7540
▁elite	-7541
▁greet	-7542
▁palms	-7543
▁spraw	-7544
▁stuck	-7545
▁vault	-7546
ignored	-7547
ireless	-7548
protozo	-7549
▁17-24)	-7550
▁1934."	-7551
▁Dhruva	-7552
▁Severe	-7553
▁Uproot	-7554
▁beauty	-7555
▁driven	-7556
▁dynast	-7557
▁morsel	-7558
▁motifs	-7559
▁mystic	-7560
▁nickel	-7561
▁normal	-7562
▁nuance	-7563
▁photop	-7564
▁pleats	-7565
▁potato	-7566
▁predom	-7567
▁pulses	-7568
▁pushed	-7569
▁qualit	-7570
▁racist	-7571
▁rainst	-7572
▁redeem	-7573
▁rescue	-7574
▁reveal	-7575
▁revere	-7576
▁robust	-7577
▁rocket	-7578
▁rushed	-7579
▁sanctu	-7580
▁scarce	-7581
▁scenes	-7582
▁scored	-7583
▁semiar	-7584
▁sewing	-7585
▁shipbu	-7586
▁speech	-7587
▁storeh	-7588
▁storms	-7589
▁sugarc	-7590
▁supers	-7591
▁survey	-7592
▁synced	-7593
▁taught	-7594
▁tenant	-7595
▁tennis	-7596
▁throne	-7597
▁tonnes	-7598
▁tribes	-7599
7-0	-7600
AIR	-7601
JPL	-7602
PLM	-7603
khr	-7604
ukh	-7605
10."	-7606
Lope	-7607
SNAs	-7608
alys	-7609
atka	-7610
bbed	-7611
jaya	-7612
nees	-7613
oech	-7614
what	-7615
▁"10	-7616
▁25%	-7617
▁33,	-7618
▁45%	-7619
▁45,	-7620
910."	-7621
Lopez	-7622
askar	-7623
iraka	-7624
iyaan	-7625
khand	-7626
khans	-7627
khrul	-7628
ladim	-7629
legal	-7630
ucoid	-7631
▁100°	-7632
▁Rukh	-7633
▁firm	-7634
7-08."	-7635
:910."	-7636
alysis	-7637
chrome	-7638
oechst	-7639
robbed	-7640
▁1997,	-7641
▁Cargo	-7642
▁avoid	-7643
▁knees	-7644
▁multi	-7645
▁physi	-7646
▁scale	-7647
khansam	-7648
ladimir	-7649
ochrome	-7650
vidence	-7651
▁Ashram	-7652
▁Parakh	-7653
▁Romans	-7654
▁Ukhrul	-7655
▁alongs	-7656
▁cancer	-7657
▁mucoid	-7658
▁prints	-7659
▁starve	-7660
▁triple	-7661
▁turtle	-7662
▁unanim	-7663
▁unprot	-7664
▁vapour	-7665
▁ventil	-7666
▁viable	-7667
▁zeroth	-7668
.07.2022	-7669
.6.2020,	-7670
Adultery	-7671
Articles	-7672
BODHGAYA	-7673
Collagen	-7674
Evidence	-7675
Independ	-7676
Mahayana	-7677
Reliance	-7678
analysis	-7679
arantees	-7680
arantine	-7681
aryadevo	-7682
assessee	-7683
astinapu	-7684
atsiraka	-7685
attisgar	-7686
casualty	-7687
circular	-7688
clearing	-7689
currency	-7690
district	-7691
earshore	-7692
emocracy	-7693
epending	-7694
essenden	-7695
ethlehem	-7696
formerly	-7697
ghalayan	-7698
giveness	-7699
DPM	-7700
▁MAT	-7701
▁ski	-7702
▁sky	-7703
Field	-7704
bours	-7705
falls	-7706
pover	-7707
while	-7708
▁Prat	-7709
▁Saha	-7710
▁Zahe	-7711
▁brok	-7712
▁skin	-7713
▁slog	-7714
Bengal	-7715
garwal	-7716
lihood	-7717
lyover	-7718
▁63.8%	-7719
▁Gauri	-7720
▁backb	-7721
▁board	-7722
▁diode	-7723
▁merit	-7724
▁secre	-7725
▁walls	-7726
-1991),	-7727
iciency	-7728
ielding	-7729
ketball	-7730
poverty	-7731
▁Asthma	-7732
▁Pratib	-7733
▁Sahare	-7734
▁Zaheer	-7735
▁artill	-7736
▁assemb	-7737
▁backpl	-7738
▁broken	-7739
▁floods	-7740
▁guests	-7741
▁narrow	-7742
▁skiing	-7743
▁slogan	-7744
▁staged	-7745
▁thrust	-7746
▁twelve	-7747
Whenever	-7748
ascading	-7749
eanwhile	-7750
guration	-7751
harapuri	-7752
havishnu	-7753
hemicals	-7754
iananmen	-7755
icrowave	-7756
ifestyle	-7757
ilbergen	-7758
illaging	-7759
imentary	-7760
imenting	-7761
indrical	-7762
ionships	-7763
istricts	-7764
itopades	-7765
lessness	-7766
mployees	-7767
ndavalli	-7768
ockingly	-7769
ographic	-7770
olidated	-7771
onavirus	-7772
ooriyaan	-7773
oothills	-7774
ormwater	-7775
orthesis	-7776
orticult	-7777
ovietone	-7778
rability	-7779
rashekar	-7780
raviolet	-7781
responds	-7782
riathlon	-7783
ronously	-7784
rrawaddy	-7785
rritable	-7786
sourcing	-7787
southern	-7788
specific	-7789
ungalows	-7790
usbandry	-7791
utiously	-7792
vereignt	-7793
violence	-7794
ximately	-7795
yielding	-7796
▁(18%)."	-7797
▁(1912),	-7798
▁(1916),	-7799
Vanu	-7800
khwa	-7801
sphe	-7802
spir	-7803
▁1,4	-7804
▁6.6	-7805
amses	-7806
anche	-7807
anees	-7808
anuel	-7809
atoes	-7810
ieves	-7811
space	-7812
spher	-7813
▁1,48	-7814
▁Kane	-7815
▁Trin	-7816
▁hole	-7817
▁lush	-7818
▁nuns	-7819
Vanuat	-7820
amshed	-7821
amsung	-7822
hanees	-7823
hockey	-7824
spirit	-7825
▁1,000	-7826
▁1,482	-7827
▁1969,	-7828
▁arche	-7829
▁explo	-7830
▁flows	-7831
▁imams	-7832
▁inert	-7833
▁innov	-7834
Vanuatu	-7835
alanche	-7836
otatoes	-7837
spheres	-7838
tunkhwa	-7839
▁1,000-	-7840
▁Manuel	-7841
▁Ramses	-7842
▁Vishal	-7843
▁flower	-7844
▁posted	-7845
▁studio	-7846
▁tropon	-7847
Potatoes	-7848
htunkhwa	-7849
junction	-7850
quitable	-7851
▁(1932),	-7852
▁(1977),	-7853
▁(2004),	-7854
▁119,776	-7855
▁15°–27°	-7856
▁6:910."	-7857
▁Agarwal	-7858
▁Akayesu	-7859
▁Alameda	-7860
▁Alexand	-7861
▁Amitabh	-7862
▁Arabian	-7863
▁Arising	-7864
▁Bangkok	-7865
▁Bhaskar	-7866
▁Brahmas	-7867
▁Brahmin	-7868
▁Calling	-7869
▁Capital	-7870
▁Cardiff	-7871
▁Chandra	-7872
▁Chilika	-7873
▁Chronic	-7874
▁Classic	-7875
▁Climate	-7876
▁Dadlani	-7877
▁Diploma	-7878
▁DirecTV	-7879
▁Dravida	-7880
▁Esperan	-7881
▁Federal	-7882
▁Foreign	-7883
▁Formula	-7884
▁Forster	-7885
▁Gallery	-7886
▁General	-7887
▁Genetic	-7888
▁Gillian	-7889
▁Hallman	-7890
▁Harihar	-7891
▁Hoechst	-7892
▁Holyoke	-7893
▁Israeli	-7894
▁Jamshed	-7895
▁Joueurs	-7896
▁Kalindi	-7897
▁Kamlesh	-7898
▁Kaundin	-7899
Body	-7900
uros	-7901
▁10-	-7902
▁102	-7903
▁210	-7904
▁Alv	-7905
▁CEO	-7906
ipala	-7907
iracy	-7908
uchas	-7909
urose	-7910
▁2100	-7911
▁Such	-7912
▁calc	-7913
arayan	-7914
attery	-7915
ayanad	-7916
border	-7917
ceeded	-7918
furose	-7919
idened	-7920
member	-7921
ourage	-7922
piracy	-7923
raying	-7924
rizona	-7925
uishes	-7926
▁Alber	-7927
▁Jacks	-7928
▁Magha	-7929
▁Spent	-7930
▁calam	-7931
▁euros	-7932
▁mails	-7933
▁makes	-7934
▁metal	-7935
▁shots	-7936
ayanars	-7937
etached	-7938
etlands	-7939
furosem	-7940
respond	-7941
▁Albert	-7942
▁Alvars	-7943
▁Amrish	-7944
▁Commun	-7945
▁Guards	-7946
▁Resear	-7947
▁Ruchas	-7948
▁Spenta	-7949
▁Zarina	-7950
▁butler	-7951
▁devast	-7952
▁metall	-7953
▁metals	-7954
▁motley	-7955
▁sacrif	-7956
▁steals	-7957
arayanan	-7958
detached	-7959
ginality	-7960
▁Arizona	-7961
▁Commons	-7962
▁Jackson	-7963
▁Khanate	-7964
▁Kishori	-7965
▁Kumaris	-7966
▁Manipur	-7967
▁Maratha	-7968
▁Mesopot	-7969
▁Nandini	-7970
▁Naushir	-7971
▁Nichols	-7972
▁Oceania	-7973
▁Panchay	-7974
▁Pandava	-7975
▁Panigra	-7976
▁Passion	-7977
▁Periyar	-7978
▁Phaseol	-7979
▁Prophet	-7980
▁Prussia	-7981
▁Rangach	-7982
▁Removal	-7983
▁Samadhi	-7984
▁Sanjaya	-7985
▁Sargent	-7986
▁Shenand	-7987
▁Silesia	-7988
▁Sitaram	-7989
▁Splines	-7990
▁Stewart	-7991
▁Sudipta	-7992
▁Trinity	-7993
▁Vaghani	-7994
▁Vedanta	-7995
▁Village	-7996
▁Wayanad	-7997
▁Zubeida	-7998
▁abusive	-7999
syn	-8000
°–1	-8001
602,	-8002
Phys	-8003
Sidd	-8004
aean	-8005
bean	-8006
irao	-8007
otto	-8008
scru	-8009
yaya	-8010
zadi	-8011
°–17	-8012
▁60%	-8013
▁80%	-8014
▁egg	-8015
Azadi	-8016
Siddh	-8017
abadi	-8018
elsyn	-8019
scrup	-8020
thira	-8021
ybean	-8022
°–17°	-8023
▁1.6%	-8024
▁1260	-8025
▁Eval	-8026
▁Kenn	-8027
▁Lady	-8028
▁Nikh	-8029
▁Rama	-8030
▁onto	-8031
▁penn	-8032
▁riot	-8033
▁warr	-8034
ajirao	-8035
bining	-8036
iculed	-8037
ircuit	-8038
scious	-8039
▁1602,	-8040
▁80%."	-8041
▁Charv	-8042
▁Color	-8043
▁Evalu	-8044
▁Films	-8045
▁Motto	-8046
▁Nyaya	-8047
▁check	-8048
▁debit	-8049
▁realm	-8050
▁terre	-8051
▁terri	-8052
Bajirao	-8053
arendra	-8054
atitude	-8055
ermaean	-8056
scrupul	-8057
usively	-8058
▁Aihole	-8059
▁Houses	-8060
▁Nikhil	-8061
▁master	-8062
▁penned	-8063
▁revolt	-8064
▁selsyn	-8065
Physical	-8066
ermining	-8067
icularly	-8068
idiculed	-8069
ishthira	-8070
ligation	-8071
ombining	-8072
▁15°–17°	-8073
▁Circuit	-8074
▁Colorad	-8075
▁Kenneth	-8076
▁adapted	-8077
▁amended	-8078
▁analyst	-8079
▁anthrop	-8080
▁anybody	-8081
▁archety	-8082
▁athlete	-8083
▁autonom	-8084
▁baggage	-8085
▁banning	-8086
▁battery	-8087
▁batting	-8088
▁bedroom	-8089
▁blocked	-8090
▁boating	-8091
▁bombard	-8092
▁bottles	-8093
▁branded	-8094
▁breadth	-8095
▁briefly	-8096
▁bullets	-8097
▁cabinet	-8098
▁caloric	-8099
Comm	-8100
fung	-8101
holy	-8102
ulls	-8103
▁Cox	-8104
▁Ord	-8105
About	-8106
Somet	-8107
anjit	-8108
ravan	-8109
ulets	-8110
▁Addy	-8111
▁Aung	-8112
▁Coal	-8113
▁Hung	-8114
▁Sule	-8115
▁Thak	-8116
▁That	-8117
▁arms	-8118
▁hung	-8119
▁rung	-8120
Inward	-8121
eromet	-8122
ravanc	-8123
▁Cohen	-8124
▁Coord	-8125
▁Gulls	-8126
▁Heung	-8127
▁dried	-8128
▁homet	-8129
▁label	-8130
▁legal	-8131
▁stool	-8132
▁tried	-8133
fungals	-8134
ivulets	-8135
olithic	-8136
rontium	-8137
▁Covent	-8138
▁Labour	-8139
▁Monten	-8140
▁Orders	-8141
▁Ranjit	-8142
▁Thakur	-8143
▁absent	-8144
▁biomet	-8145
▁cycled	-8146
▁cyclic	-8147
▁fibers	-8148
▁hungry	-8149
▁intras	-8150
▁inward	-8151
▁unholy	-8152
▁wanted	-8153
Commemor	-8154
aggering	-8155
erometer	-8156
▁Coordin	-8157
▁Dhanraj	-8158
▁Hungary	-8159
▁Suleman	-8160
▁Travanc	-8161
▁cardiac	-8162
▁carpets	-8163
▁carving	-8164
▁chaitya	-8165
▁chariot	-8166
▁chewing	-8167
▁claimed	-8168
▁clearly	-8169
▁cluster	-8170
▁colloid	-8171
▁combine	-8172
▁conspir	-8173
▁convinc	-8174
▁cooking	-8175
▁coupled	-8176
▁craftsm	-8177
▁crooked	-8178
▁crossed	-8179
▁cycling	-8180
▁cyclone	-8181
▁damages	-8182
▁decades	-8183
▁decides	-8184
▁definit	-8185
▁dialect	-8186
▁digital	-8187
▁discont	-8188
▁doctors	-8189
▁dollars	-8190
▁drummer	-8191
▁dynamic	-8192
▁dynasty	-8193
▁earning	-8194
▁element	-8195
▁endless	-8196
▁esophag	-8197
▁fabrics	-8198
▁fanatic	-8199
1.9	-8200
57.	-8201
827	-8202
bye	-8203
kva	-8204
mma	-8205
yma	-8206
▁93	-8207
▁95	-8208
,827	-8209
.11.	-8210
Anup	-8211
aidu	-8212
aitt	-8213
lams	-8214
olym	-8215
ulph	-8216
▁(30	-8217
▁11.	-8218
▁31.	-8219
▁95°	-8220
▁Gaz	-8221
Anita	-8222
amene	-8223
anesh	-8224
chyma	-8225
enech	-8226
innam	-8227
isdom	-8228
omery	-8229
rekva	-8230
▁$1.9	-8231
▁31.0	-8232
▁Adva	-8233
▁Mery	-8234
▁Rule	-8235
▁Taya	-8236
▁Umma	-8237
.11.2,	-8238
Cinnam	-8239
Fenech	-8240
aittir	-8241
amenei	-8242
erythe	-8243
gomery	-8244
ittens	-8245
nchyma	-8246
resaid	-8247
▁11.04	-8248
▁1829,	-8249
▁1857.	-8250
▁2011.	-8251
▁2017.	-8252
▁3,827	-8253
▁Bantu	-8254
▁Islam	-8255
▁Naidu	-8256
▁Shenz	-8257
▁Slams	-8258
▁sides	-8259
▁sulph	-8260
Anupama	-8261
olymers	-8262
oresaid	-8263
tgomery	-8264
▁31.01.	-8265
▁Ganesh	-8266
▁Polish	-8267
▁Tennis	-8268
▁diving	-8269
▁matrix	-8270
▁victor	-8271
▁wisdom	-8272
Cinnamon	-8273
bability	-8274
domestic	-8275
erythema	-8276
foresaid	-8277
lamation	-8278
ohapatra	-8279
rekvaart	-8280
▁Advaita	-8281
▁Gazette	-8282
▁Meryame	-8283
▁Ragging	-8284
▁Taittir	-8285
▁cleared	-8286
▁earthqu	-8287
▁enemies	-8288
▁fastest	-8289
▁flyover	-8290
▁focuses	-8291
▁friends	-8292
▁gallery	-8293
▁genetic	-8294
▁geother	-8295
▁goodbye	-8296
▁governs	-8297
▁grading	-8298
▁grammes	-8299
POSC	-8300
Shub	-8301
▁174	-8302
▁Syr	-8303
agger	-8304
orges	-8305
unica	-8306
▁150-	-8307
▁Ayod	-8308
▁Span	-8309
▁fict	-8310
▁limp	-8311
▁vict	-8312
Kunica	-8313
Odisha	-8314
POSCAP	-8315
ictive	-8316
ourney	-8317
ristol	-8318
▁Lords	-8319
▁immor	-8320
▁unreg	-8321
Shubhra	-8322
convert	-8323
ducting	-8324
eastern	-8325
pendent	-8326
regular	-8327
▁Delaun	-8328
▁Majest	-8329
▁Syrian	-8330
▁assets	-8331
▁buyers	-8332
▁dagger	-8333
▁deeply	-8334
▁focuss	-8335
▁fourte	-8336
▁gorges	-8337
▁immers	-8338
▁mantle	-8339
▁pestic	-8340
▁volley	-8341
heastern	-8342
▁Ayodhya	-8343
▁Bristol	-8344
▁Century	-8345
▁Majesty	-8346
▁Spanish	-8347
▁deepens	-8348
▁discour	-8349
▁extinct	-8350
▁fiction	-8351
▁grinder	-8352
▁grossly	-8353
▁grounds	-8354
▁haemost	-8355
▁hangout	-8356
▁happens	-8357
▁happily	-8358
▁hardier	-8359
▁harmful	-8360
▁hepatic	-8361
▁heroism	-8362
▁homeost	-8363
▁hygiene	-8364
▁ignored	-8365
▁illegit	-8366
▁illiter	-8367
▁immater	-8368
▁immoral	-8369
▁impacts	-8370
▁implied	-8371
▁indoors	-8372
▁inhabit	-8373
▁injured	-8374
▁inspect	-8375
▁insured	-8376
▁invoked	-8377
▁joining	-8378
▁journey	-8379
▁keynote	-8380
▁kingdom	-8381
▁latitud	-8382
▁lengthy	-8383
▁library	-8384
▁linking	-8385
▁listing	-8386
▁mandate	-8387
▁mantras	-8388
▁mapping	-8389
▁martyrs	-8390
▁massive	-8391
▁mastery	-8392
▁measure	-8393
▁message	-8394
▁messeng	-8395
▁mixture	-8396
▁musical	-8397
▁neglect	-8398
▁neutron	-8399
agne	-8400
exas	-8401
▁50°	-8402
▁553	-8403
▁Nex	-8404
▁hym	-8405
▁hyp	-8406
imacy	-8407
senal	-8408
undra	-8409
▁Head	-8410
▁Hein	-8411
▁bioc	-8412
▁fees	-8413
▁feet	-8414
▁fund	-8415
▁insp	-8416
▁magn	-8417
▁pale	-8418
abling	-8419
alking	-8420
ndrome	-8421
ussion	-8422
▁Andal	-8423
▁Extra	-8424
▁Hyang	-8425
▁Kamal	-8426
▁Rajan	-8427
▁Shill	-8428
▁Texas	-8429
▁Times	-8430
▁finds	-8431
▁headd	-8432
▁hymen	-8433
▁hypoc	-8434
▁index	-8435
▁sorry	-8436
▁steep	-8437
▁veter	-8438
lemagne	-8439
licking	-8440
▁Mundra	-8441
▁Nexium	-8442
▁Summit	-8443
▁biomes	-8444
▁breast	-8445
▁editor	-8446
▁feared	-8447
▁fundam	-8448
▁hypoca	-8449
▁marine	-8450
▁safari	-8451
▁seeing	-8452
▁shocks	-8453
▁sledge	-8454
▁Arsenal	-8455
▁McNally	-8456
▁Rajanik	-8457
▁Talking	-8458
▁dischar	-8459
▁gaining	-8460
▁inspire	-8461
▁install	-8462
▁marched	-8463
▁notably	-8464
▁ongoing	-8465
▁origins	-8466
▁outpost	-8467
▁outsour	-8468
▁panchay	-8469
▁partner	-8470
▁perfume	-8471
▁perpend	-8472
▁persuad	-8473
▁plastic	-8474
▁plateau	-8475
▁polygon	-8476
▁potable	-8477
▁practic	-8478
▁prayers	-8479
▁pricing	-8480
▁profits	-8481
▁racking	-8482
▁rapidly	-8483
▁reduces	-8484
▁rioting	-8485
▁running	-8486
▁sampled	-8487
▁scenari	-8488
▁schools	-8489
▁seasons	-8490
▁sensory	-8491
▁shifted	-8492
▁simpler	-8493
▁sipping	-8494
▁sleight	-8495
▁sorting	-8496
▁soybean	-8497
▁spirits	-8498
▁steeped	-8499
30,	-8500
eca	-8501
▁97	-8502
330,	-8503
ceme	-8504
naec	-8505
utsc	-8506
▁2.1	-8507
▁Leb	-8508
▁USA	-8509
▁keb	-8510
ynaec	-8511
▁1860	-8512
▁1972	-8513
▁1977	-8514
▁1978	-8515
▁2.1%	-8516
▁Arah	-8517
▁Chau	-8518
▁Girl	-8519
▁Mahk	-8520
▁Mahr	-8521
▁exec	-8522
▁lows	-8523
▁pinc	-8524
Carbon	-8525
Deutsc	-8526
asonry	-8527
cemeal	-8528
▁1999,	-8529
▁Leban	-8530
▁Mahal	-8531
▁capac	-8532
▁defec	-8533
▁handg	-8534
▁kebab	-8535
▁perme	-8536
▁solit	-8537
▁solve	-8538
575330,	-8539
mically	-8540
ognized	-8541
raphite	-8542
selfish	-8543
yakarta	-8544
▁Amster	-8545
▁Gynaec	-8546
▁Mahkam	-8547
▁Maldiv	-8548
▁Metrop	-8549
▁Phalke	-8550
▁deaths	-8551
▁facade	-8552
▁facing	-8553
▁groups	-8554
▁headed	-8555
▁kebabs	-8556
▁lowest	-8557
▁metric	-8558
▁obsess	-8559
▁patent	-8560
▁spring	-8561
4575330,	-8562
Deutsche	-8563
asically	-8564
atically	-8565
hinendra	-8566
iecemeal	-8567
▁Amsterd	-8568
▁Arahant	-8569
▁Chauhan	-8570
▁Lebanon	-8571
▁Mahratt	-8572
▁Rangila	-8573
▁advised	-8574
▁commits	-8575
▁deceler	-8576
▁execute	-8577
▁handgun	-8578
▁handles	-8579
▁masonry	-8580
▁pincers	-8581
▁subscri	-8582
▁suffers	-8583
▁surgeon	-8584
▁synthes	-8585
▁tensile	-8586
▁textual	-8587
▁tonight	-8588
▁topsoil	-8589
▁travell	-8590
▁tremend	-8591
▁triumph	-8592
▁unified	-8593
▁univers	-8594
▁venture	-8595
▁veteran	-8596
▁waiting	-8597
▁warning	-8598
▁wedding	-8599
PAs	-8600
ycl	-8601
amba	-8602
bows	-8603
cycl	-8604
dars	-8605
girl	-8606
icyc	-8607
rabs	-8608
▁92,	-8609
▁IPO	-8610
▁Lyc	-8611
▁Tax	-8612
▁max	-8613
South	-8614
ambod	-8615
liter	-8616
olton	-8617
tiars	-8618
▁1981	-8619
▁Hamb	-8620
▁bars	-8621
▁faun	-8622
▁musc	-8623
▁nets	-8624
▁pair	-8625
▁smug	-8626
▁swam	-8627
▁swum	-8628
▁vaun	-8629
Cambod	-8630
antana	-8631
bowski	-8632
common	-8633
cyclop	-8634
moking	-8635
randed	-8636
▁1982,	-8637
▁Arabs	-8638
▁Lyche	-8639
▁Rushi	-8640
▁Sutra	-8641
▁bicyc	-8642
▁fauna	-8643
▁smugg	-8644
▁swine	-8645
akhamba	-8646
darsana	-8647
smoking	-8648
thiopia	-8649
zerland	-8650
▁2020),	-8651
▁Lychee	-8652
▁Mysore	-8653
▁Rolton	-8654
▁bottom	-8655
▁button	-8656
▁closed	-8657
▁fertil	-8658
▁salute	-8659
▁sphere	-8660
▁strate	-8661
▁tablas	-8662
cycloped	-8663
embowski	-8664
stranded	-8665
uncommon	-8666
▁2020)."	-8667
▁Hambled	-8668
▁Journal	-8669
▁Massach	-8670
▁Mediter	-8671
▁Santana	-8672
▁approve	-8673
▁muscles	-8674
▁vaunted	-8675
▁worship	-8676
▁writers	-8677
▁wrongly	-8678
06-1994),	-8679
14-1991),	-8680
Basically	-8681
Cambodian	-8682
Combining	-8683
Dembowski	-8684
Depending	-8685
Dhinendra	-8686
Generally	-8687
Meanwhile	-8688
Sometimes	-8689
agistrate	-8690
ansomware	-8691
arenchyma	-8692
arliament	-8693
armavidha	-8694
arylebone	-8695
attisgarh	-8696
aturation	-8697
bohydrate	-8698
conscious	-8699
-4,	-8700
Bee	-8701
CAR	-8702
Rev	-8703
cov	-8704
1.9%	-8705
Beek	-8706
cani	-8707
eeks	-8708
eele	-8709
iflu	-8710
imov	-8711
riev	-8712
▁(4,	-8713
▁Add	-8714
▁Mao	-8715
▁Zee	-8716
coval	-8717
eeing	-8718
ithet	-8719
▁(4,6	-8720
▁Adig	-8721
▁ICAR	-8722
▁Lamb	-8723
▁Mahe	-8724
▁inev	-8725
Seeing	-8726
amiflu	-8727
ariats	-8728
imovic	-8729
lucent	-8730
▁(4,67	-8731
▁2004,	-8732
▁71.9%	-8733
▁Adiga	-8734
▁Bandy	-8735
▁Lambu	-8736
▁Peele	-8737
▁Weeks	-8738
▁concl	-8739
▁griev	-8740
▁kilog	-8741
▁robot	-8742
▁signs	-8743
rowaves	-8744
▁(4,670	-8745
▁Mahela	-8746
▁asking	-8747
▁concre	-8748
▁signed	-8749
covalent	-8750
igration	-8751
▁Bandyop	-8752
▁Tamiflu	-8753
▁Toscani	-8754
▁epithet	-8755
▁pencils	-8756
▁restric	-8757
▁signals	-8758
continual	-8759
excessive	-8760
getarians	-8761
iciencies	-8762
igorously	-8763
important	-8764
including	-8765
intensive	-8766
iorthesis	-8767
itzerland	-8768
knowledge	-8769
mployment	-8770
munologic	-8771
oanalysis	-8772
ogenicity	-8773
organised	-8774
quisition	-8775
rahimovic	-8776
remelting	-8777
something	-8778
struction	-8779
teraction	-8780
terranean	-8781
universal	-8782
urangabad	-8783
ustration	-8784
veillance	-8785
venteenth	-8786
▁(1917)."	-8787
▁Academic	-8788
▁Adaptive	-8789
▁Adultery	-8790
▁Alliance	-8791
▁Assamese	-8792
▁AstraZen	-8793
▁Basilica	-8794
▁Bharatas	-8795
▁Binapani	-8796
▁Business	-8797
▁Catalina	-8798
▁Chabahar	-8799
.3%	-8800
.43	-8801
MOS	-8802
2.43	-8803
ibet	-8804
loor	-8805
mara	-8806
orne	-8807
roft	-8808
▁Ann	-8809
▁Gib	-8810
Start	-8811
atgas	-8812
croft	-8813
floor	-8814
harma	-8815
iatic	-8816
orner	-8817
sched	-8818
₹2.43	-8819
▁1984	-8820
▁30.0	-8821
▁Anil	-8822
▁Anna	-8823
▁CMOS	-8824
▁Horn	-8825
▁beds	-8826
▁lawy	-8827
Natgas	-8828
harmac	-8829
ilized	-8830
porary	-8831
raffic	-8832
umatic	-8833
ushion	-8834
▁10.3%	-8835
▁Abhiy	-8836
▁Annex	-8837
▁Banka	-8838
▁Barcl	-8839
▁Conqu	-8840
▁Gurud	-8841
▁Hornb	-8842
▁Meera	-8843
▁Murud	-8844
▁Tibet	-8845
▁anten	-8846
▁loses	-8847
▁minim	-8848
▁seeds	-8849
▁₹2.43	-8850
oycroft	-8851
traffic	-8852
▁1948."	-8853
▁Annexe	-8854
▁Dharma	-8855
▁Gibral	-8856
▁Orange	-8857
▁Pakist	-8858
▁corals	-8859
▁corner	-8860
▁fights	-8861
▁framew	-8862
▁lawyer	-8863
▁lights	-8864
▁tomara	-8865
Starting	-8866
inghorne	-8867
inthians	-8868
obilized	-8869
ountries	-8870
ushioned	-8871
▁Abhiyan	-8872
▁Asiatic	-8873
▁Conquer	-8874
▁Convent	-8875
▁Gibralt	-8876
▁Saharer	-8877
▁Traffic	-8878
▁antenna	-8879
▁pharmac	-8880
▁weights	-8881
scheduled	-8882
traumatic	-8883
▁Barclays	-8884
▁Chandrab	-8885
▁Channels	-8886
▁Charvaka	-8887
▁Chaupadi	-8888
▁Cochlear	-8889
▁Colorado	-8890
▁Computer	-8891
▁Confeder	-8892
▁Constana	-8893
▁Cultural	-8894
▁Dholavir	-8895
▁Division	-8896
▁Drifting	-8897
▁Dunsmuir	-8898
▁Enbiolet	-8899
Ala	-8900
gnu	-8901
shr	-8902
UTII	-8903
akla	-8904
iefs	-8905
ixit	-8906
phib	-8907
▁15%	-8908
▁154	-8909
▁pix	-8910
▁sla	-8911
Indic	-8912
UTIIT	-8913
andla	-8914
attad	-8915
attel	-8916
laing	-8917
lared	-8918
liefs	-8919
shman	-8920
▁Natt	-8921
▁salt	-8922
▁wife	-8923
alakla	-8924
arital	-8925
eneath	-8926
iongnu	-8927
shmana	-8928
▁Dixit	-8929
▁Ramch	-8930
▁crash	-8931
▁enshr	-8932
▁focal	-8933
▁mixes	-8934
▁pixel	-8935
▁visit	-8936
▁vital	-8937
▁vivid	-8938
Kalakla	-8939
UTIITSL	-8940
attadak	-8941
attelle	-8942
▁6.4.6,	-8943
▁Hlaing	-8944
▁Jharia	-8945
▁Kandla	-8946
▁Mather	-8947
▁Nagpur	-8948
▁amphib	-8949
▁detect	-8950
▁gather	-8951
▁masala	-8952
▁misuse	-8953
▁riding	-8954
akshmana	-8955
ayanists	-8956
hibition	-8957
unicipal	-8958
▁Restaur	-8959
▁Xiongnu	-8960
▁beliefs	-8961
▁beneath	-8962
▁choices	-8963
▁issuing	-8964
▁slavery	-8965
▁weather	-8966
Employees	-8967
attadakal	-8968
ramarital	-8969
▁Battelle	-8970
▁Ethiopia	-8971
▁Football	-8972
▁Friedhel	-8973
▁Gotabaya	-8974
▁Gujarati	-8975
▁Gurdwara	-8976
▁Guterres	-8977
▁Hermaean	-8978
▁Hinduism	-8979
▁Hornbill	-8980
▁Issuance	-8981
▁Jagadish	-8982
▁Khamenei	-8983
▁Koechlin	-8984
▁Mahkamah	-8985
▁Maldives	-8986
▁Manmohan	-8987
▁Marriage	-8988
▁Metropol	-8989
▁Michelie	-8990
▁Ministry	-8991
▁Muhammad	-8992
▁Narendra	-8993
▁Nayanars	-8994
▁Nordholt	-8995
▁Oliviero	-8996
▁Pratibha	-8997
▁Protocol	-8998
▁Ramayana	-8999
29,	-9000
hna	-9001
ypr	-9002
Subu	-9003
argy	-9004
priv	-9005
▁125	-9006
▁129	-9007
▁Alp	-9008
▁cyl	-9009
Bantu	-9010
cerpt	-9011
gener	-9012
green	-9013
odern	-9014
okhna	-9015
pring	-9016
prise	-9017
yprus	-9018
▁1258	-9019
▁1296	-9020
▁Book	-9021
▁Lamp	-9022
▁buff	-9023
▁crat	-9024
Modern	-9025
advert	-9026
igible	-9027
inides	-9028
ivalry	-9029
spring	-9030
thargy	-9031
▁1629,	-9032
▁Camil	-9033
▁arena	-9034
▁creed	-9035
▁grief	-9036
▁parag	-9037
▁ratio	-9038
ceptual	-9039
cesters	-9040
inators	-9041
issible	-9042
private	-9043
▁Alpine	-9044
▁Booker	-9045
▁Cyprus	-9046
▁Multiv	-9047
▁Sokhna	-9048
▁Vidhan	-9049
▁buffer	-9050
▁craton	-9051
▁handed	-9052
Broadway	-9053
ceptable	-9054
eligible	-9055
tibrrito	-9056
▁Camille	-9057
▁creates	-9058
▁equally	-9059
▁excerpt	-9060
▁expense	-9061
▁follows	-9062
▁insight	-9063
▁optimum	-9064
▁percept	-9065
▁reading	-9066
▁rivalry	-9067
advertent	-9068
cestershi	-9069
itigation	-9070
▁Reliance	-9071
▁Sachidan	-9072
▁Samaveda	-9073
▁Sangraha	-9074
▁Sarojini	-9075
▁Securing	-9076
▁Shenzhen	-9077
▁Shikaras	-9078
▁Solution	-9079
▁Srinagar	-9080
▁Subendhu	-9081
▁Sulfites	-9082
▁Sumatran	-9083
▁Terrence	-9084
▁Unwanted	-9085
▁Uttarakh	-9086
▁Walisong	-9087
▁Weespert	-9088
▁Zeinorin	-9089
▁abundant	-9090
▁adequacy	-9091
▁admitted	-9092
▁aerosols	-9093
▁afforded	-9094
▁airborne	-9095
▁ambiance	-9096
▁animator	-9097
▁annually	-9098
▁appoints	-9099
EAL	-9100
-09,	-9101
ffee	-9102
reng	-9103
▁Lax	-9104
▁NSP	-9105
▁blu	-9106
Banks	-9107
EALas	-9108
amins	-9109
idues	-9110
iodol	-9111
langu	-9112
ogues	-9113
sized	-9114
uency	-9115
ulmin	-9116
▁2023	-9117
▁2024	-9118
▁carc	-9119
▁cues	-9120
▁hues	-9121
▁sins	-9122
▁surf	-9123
▁surv	-9124
invent	-9125
minent	-9126
minute	-9127
rength	-9128
rister	-9129
second	-9130
vented	-9131
▁2013.	-9132
▁Cross	-9133
▁Khmer	-9134
▁Media	-9135
▁bluff	-9136
▁carry	-9137
▁diure	-9138
▁gains	-9139
▁owing	-9140
▁repro	-9141
agogues	-9142
ipiodol	-9143
itamins	-9144
medical	-9145
ondency	-9146
▁10,600	-9147
▁Bulbul	-9148
▁Castel	-9149
▁Laxman	-9150
▁Medium	-9151
▁Mother	-9152
▁REALas	-9153
▁Second	-9154
▁Sister	-9155
▁TOOFAN	-9156
▁brands	-9157
▁carcin	-9158
▁caring	-9159
▁chains	-9160
▁coffee	-9161
▁culmin	-9162
▁diuret	-9163
▁dramat	-9164
▁repack	-9165
▁termed	-9166
language	-9167
pondency	-9168
▁Baghani	-9169
▁Castelb	-9170
▁Charana	-9171
▁convent	-9172
▁prevent	-9173
▁samadhi	-9174
▁survive	-9175
inventing	-9176
raditions	-9177
▁(2000)."	-9178
▁2008-09,	-9179
▁Lipiodol	-9180
▁approval	-9181
▁approved	-9182
▁archetyp	-9183
▁archived	-9184
▁armoured	-9185
▁assassin	-9186
▁athletes	-9187
▁athletic	-9188
▁attached	-9189
▁attended	-9190
▁authored	-9191
▁aversion	-9192
▁avoiding	-9193
▁backbone	-9194
▁balanced	-9195
▁bathroom	-9196
▁bicycles	-9197
▁blockers	-9198
▁bludgeon	-9199
.5%	-9200
fti	-9201
ohl	-9202
ugo	-9203
alya	-9204
atya	-9205
itti	-9206
mbad	-9207
offs	-9208
olph	-9209
rhen	-9210
tier	-9211
▁187	-9212
▁3.5	-9213
▁38°	-9214
▁Deb	-9215
▁Yug	-9216
▁aug	-9217
Satya	-9218
abman	-9219
accur	-9220
appan	-9221
oonch	-9222
rrhen	-9223
▁1875	-9224
▁7.5%	-9225
▁Chen	-9226
▁Jaap	-9227
▁Nick	-9228
▁Rohl	-9229
▁View	-9230
▁When	-9231
▁chea	-9232
▁mane	-9233
▁sons	-9234
▁vali	-9235
▁wick	-9236
avelin	-9237
olphin	-9238
onsist	-9239
ormugo	-9240
yrrhen	-9241
▁Ambad	-9242
▁Chenn	-9243
▁Mufti	-9244
▁Secur	-9245
▁Yugos	-9246
▁chick	-9247
▁impos	-9248
▁locks	-9249
▁maneu	-9250
▁smart	-9251
▁speak	-9252
▁spear	-9253
▁speed	-9254
▁spend	-9255
appoint	-9256
arappan	-9257
rontier	-9258
▁Chitti	-9259
▁Poonch	-9260
▁Singhs	-9261
▁Yugosl	-9262
▁cabman	-9263
▁charge	-9264
▁impose	-9265
▁protot	-9266
▁raised	-9267
▁transm	-9268
▁watery	-9269
▁waving	-9270
Harappan	-9271
accurate	-9272
existing	-9273
tibility	-9274
▁Antalya	-9275
▁Chapter	-9276
▁Chennai	-9277
▁Debaraj	-9278
▁Mormugo	-9279
▁Tyrrhen	-9280
▁charter	-9281
▁cheaper	-9282
▁chickpe	-9283
▁dolphin	-9284
▁javelin	-9285
▁prototy	-9286
▁valiant	-9287
▁wickets	-9288
▁Frontier	-9289
▁Rohlfing	-9290
▁Yugoslav	-9291
▁bluffing	-9292
▁bookings	-9293
▁boundary	-9294
▁branches	-9295
▁cartoons	-9296
▁casualty	-9297
▁catalyst	-9298
▁celebrit	-9299
ucl	-9300
▁6°	-9301
adai	-9302
arma	-9303
rudd	-9304
▁MAJ	-9305
▁Noh	-9306
▁pai	-9307
akwan	-9308
armic	-9309
herap	-9310
uches	-9311
uddha	-9312
▁MAJO	-9313
▁Nohs	-9314
▁Scot	-9315
▁iron	-9316
armour	-9317
auddha	-9318
ceived	-9319
ionucl	-9320
ruddin	-9321
udding	-9322
▁Archa	-9323
▁Corru	-9324
▁Karma	-9325
▁MAJOR	-9326
▁Nohsn	-9327
▁Phant	-9328
▁endor	-9329
▁endow	-9330
▁kadai	-9331
▁modes	-9332
▁nonav	-9333
▁truly	-9334
▁venge	-9335
natural	-9336
otherap	-9337
▁Archae	-9338
▁Charge	-9339
▁Makwan	-9340
▁Nohsng	-9341
▁Volume	-9342
▁expend	-9343
▁karmic	-9344
▁landed	-9345
▁leader	-9346
▁manage	-9347
▁paired	-9348
▁papaya	-9349
▁refere	-9350
▁refers	-9351
▁reform	-9352
ithidevo	-9353
received	-9354
redients	-9355
▁(1987),	-9356
▁Bauddha	-9357
▁Display	-9358
▁Phantom	-9359
▁artists	-9360
▁budding	-9361
▁endings	-9362
▁endorse	-9363
▁leaders	-9364
▁organiz	-9365
▁referee	-9366
▁touches	-9367
gredients	-9368
▁Monteneg	-9369
▁Scotland	-9370
▁chairman	-9371
▁chickpea	-9372
▁chloride	-9373
▁circular	-9374
▁clusters	-9375
▁cochlear	-9376
▁collagen	-9377
▁colleges	-9378
▁colloids	-9379
▁complain	-9380
▁computed	-9381
▁conducts	-9382
▁confined	-9383
▁continue	-9384
▁converts	-9385
▁crackers	-9386
▁creating	-9387
▁creation	-9388
▁creative	-9389
▁critical	-9390
▁crossing	-9391
▁datasets	-9392
▁daughter	-9393
▁defiance	-9394
▁delusion	-9395
▁describe	-9396
▁designer	-9397
▁desiring	-9398
▁detected	-9399
Ass	-9400
Deh	-9401
obb	-9402
▁9,	-9403
gium	-9404
icob	-9405
irty	-9406
ockp	-9407
type	-9408
▁15-	-9409
▁189	-9410
▁Bob	-9411
▁CPI	-9412
▁Uns	-9413
▁Zun	-9414
edium	-9415
obben	-9416
suant	-9417
▁1895	-9418
▁Frid	-9419
▁Tenn	-9420
▁Unre	-9421
▁diet	-9422
▁insu	-9423
Dehrad	-9424
Medium	-9425
edient	-9426
endium	-9427
estock	-9428
icobar	-9429
ockers	-9430
ocking	-9431
ockpit	-9432
ranium	-9433
▁Bobby	-9434
▁Unsat	-9435
▁Zungh	-9436
▁clock	-9437
▁flock	-9438
▁happy	-9439
▁newsm	-9440
▁radar	-9441
General	-9442
Uranium	-9443
lockers	-9444
▁Friday	-9445
▁Robben	-9446
▁Unions	-9447
▁Warden	-9448
▁expect	-9449
▁passag	-9450
▁posing	-9451
▁revert	-9452
▁stages	-9453
▁styles	-9454
▁thirty	-9455
Assamese	-9456
Chemical	-9457
Dehradun	-9458
blockers	-9459
inematic	-9460
ivestock	-9461
▁Belgium	-9462
▁Nicobar	-9463
▁Unsatur	-9464
▁Zunghar	-9465
▁cockpit	-9466
▁distort	-9467
▁equanim	-9468
▁mocking	-9469
▁newsmag	-9470
▁passion	-9471
▁passive	-9472
▁subsidi	-9473
▁surchar	-9474
▁concerts	-9475
▁degrades	-9476
▁delicate	-9477
▁dialogue	-9478
▁dissatis	-9479
▁distance	-9480
▁dividend	-9481
▁elements	-9482
▁entitled	-9483
▁epiphany	-9484
▁evacuate	-9485
▁evenings	-9486
▁evolving	-9487
▁existing	-9488
▁expected	-9489
▁expendit	-9490
▁explains	-9491
▁exported	-9492
▁extraord	-9493
▁faithful	-9494
▁famously	-9495
▁favoring	-9496
▁fedayeen	-9497
▁feverish	-9498
▁fieldwor	-9499
041	-9500
egw	-9501
▁86	-9502
Osel	-9503
bury	-9504
egum	-9505
issi	-9506
nove	-9507
▁49%	-9508
▁8."	-9509
▁LCD	-9510
▁Yar	-9511
▁Yim	-9512
▁flo	-9513
-3041	-9514
Oselt	-9515
acles	-9516
azine	-9517
egwon	-9518
itles	-9519
phant	-9520
range	-9521
▁Abul	-9522
▁Kiss	-9523
▁Move	-9524
▁Yang	-9525
▁Yima	-9526
▁flag	-9527
▁flat	-9528
▁love	-9529
▁visc	-9530
1-3041	-9531
harles	-9532
novect	-9533
overed	-9534
owards	-9535
titles	-9536
▁2014;	-9537
▁Begum	-9538
▁Gange	-9539
▁Power	-9540
▁Proto	-9541
▁cards	-9542
▁crumb	-9543
▁fired	-9544
▁flags	-9545
▁fling	-9546
▁yards	-9547
Charles	-9548
Oseltam	-9549
Towards	-9550
herited	-9551
lephant	-9552
nesbury	-9553
stacles	-9554
▁Andrew	-9555
▁Comple	-9556
▁Odissi	-9557
▁Yangon	-9558
▁canned	-9559
▁curric	-9560
▁micron	-9561
▁orange	-9562
▁remove	-9563
▁shower	-9564
▁varieg	-9565
Elephant	-9566
everages	-9567
novectom	-9568
▁Jaegwon	-9569
▁Siddhar	-9570
▁dispens	-9571
▁intrast	-9572
▁viscous	-9573
1-3041000	-9574
Oseltamiv	-9575
ednesbury	-9576
novectomy	-9577
▁Movement	-9578
▁bayfront	-9579
▁curricul	-9580
▁escaping	-9581
▁everyone	-9582
▁finances	-9583
▁flattery	-9584
▁floating	-9585
▁flooding	-9586
▁flourish	-9587
▁fluoride	-9588
▁football	-9589
▁forecast	-9590
▁fourteen	-9591
▁fraction	-9592
▁fruitful	-9593
▁generate	-9594
▁greeting	-9595
▁guidance	-9596
▁handling	-9597
▁handsets	-9598
▁holidays	-9599
eoth	-9600
keng	-9601
▁Yin	-9602
agara	-9603
agash	-9604
assee	-9605
cases	-9606
othes	-9607
uriya	-9608
▁1835	-9609
▁1995	-9610
▁Arth	-9611
▁Arun	-9612
▁Earn	-9613
▁Goan	-9614
▁Gond	-9615
▁Peng	-9616
▁Pond	-9617
▁empt	-9618
▁fond	-9619
▁harn	-9620
▁unex	-9621
ashast	-9622
ashion	-9623
enches	-9624
eothav	-9625
kengas	-9626
oonful	-9627
vestan	-9628
▁1992,	-9629
▁1995.	-9630
▁2002,	-9631
▁Anton	-9632
▁Gondw	-9633
▁color	-9634
▁empty	-9635
▁poles	-9636
Siemens	-9637
ahassee	-9638
▁Instit	-9639
▁Invest	-9640
▁Lagash	-9641
▁Pondic	-9642
▁Suriya	-9643
▁crowds	-9644
▁dating	-9645
▁decree	-9646
▁eating	-9647
▁mature	-9648
▁nagara	-9649
▁polite	-9650
▁spices	-9651
▁unexpl	-9652
arnation	-9653
ashastra	-9654
roeconom	-9655
▁Abhijit	-9656
▁Antonio	-9657
▁Avestan	-9658
▁Keothav	-9659
▁Nkengas	-9660
▁Sanggar	-9661
▁benches	-9662
▁clothes	-9663
▁fashion	-9664
▁harness	-9665
▁heating	-9666
▁offices	-9667
▁substit	-9668
itopadesa	-9669
ossession	-9670
▁Earnings	-9671
▁Gondwana	-9672
▁graphite	-9673
▁hometown	-9674
▁hospital	-9675
▁humanity	-9676
▁humility	-9677
▁identify	-9678
▁imperson	-9679
▁imposing	-9680
▁indicate	-9681
▁inferior	-9682
▁inferred	-9683
▁injected	-9684
▁inserted	-9685
▁intemper	-9686
▁interlin	-9687
▁intimate	-9688
▁invasion	-9689
▁invented	-9690
▁involved	-9691
▁issuance	-9692
▁kingship	-9693
▁laughter	-9694
▁lawfully	-9695
▁lectures	-9696
▁lethargy	-9697
▁limbless	-9698
▁mandated	-9699
▁7%	-9700
▁78	-9701
1.6%	-9702
79),	-9703
ouza	-9704
▁32-	-9705
▁7%,	-9706
▁720	-9707
Above	-9708
Souza	-9709
appas	-9710
ilted	-9711
lando	-9712
liant	-9713
liers	-9714
lines	-9715
liver	-9716
rines	-9717
seven	-9718
venes	-9719
venue	-9720
vines	-9721
▁1880	-9722
▁Miny	-9723
▁gene	-9724
▁guns	-9725
▁haun	-9726
akland	-9727
elines	-9728
▁21.6%	-9729
▁excav	-9730
▁forex	-9731
▁genet	-9732
▁genre	-9733
▁haunt	-9734
▁joins	-9735
▁lines	-9736
▁saute	-9737
▁semic	-9738
Article	-9739
acebook	-9740
acility	-9741
cedures	-9742
ousness	-9743
regions	-9744
reliant	-9745
riesian	-9746
▁(1937)	-9747
▁Avenue	-9748
▁Pappas	-9749
▁differ	-9750
▁genome	-9751
▁genres	-9752
▁inland	-9753
▁mutual	-9754
▁onland	-9755
▁pestle	-9756
▁tilted	-9757
Friesian	-9758
approved	-9759
▁(1979),	-9760
▁Minyong	-9761
▁Oakland	-9762
▁Orlando	-9763
▁ability	-9764
▁bankers	-9765
▁charged	-9766
▁pleased	-9767
▁ravines	-9768
▁traject	-9769
▁wherein	-9770
▁Airlines	-9771
▁Facebook	-9772
▁Facility	-9773
▁differed	-9774
▁exchange	-9775
▁maneuver	-9776
▁marabout	-9777
▁marketpl	-9778
▁markings	-9779
▁massacre	-9780
▁meanings	-9781
▁mesophyt	-9782
▁microLED	-9783
▁microbes	-9784
▁military	-9785
▁missiles	-9786
▁mobilise	-9787
▁modality	-9788
▁monastic	-9789
▁multiple	-9790
▁narrates	-9791
▁negative	-9792
▁nihilism	-9793
▁nobility	-9794
▁nonavail	-9795
▁notified	-9796
▁occurred	-9797
▁operates	-9798
▁operator	-9799
-31	-9800
ZEE	-9801
GMOs	-9802
Iran	-9803
ZEEL	-9804
oyas	-9805
ushd	-9806
▁11%	-9807
▁4.7	-9808
▁Def	-9809
▁Ref	-9810
▁pup	-9811
March	-9812
abbed	-9813
abled	-9814
akram	-9815
atals	-9816
odium	-9817
ronus	-9818
unded	-9819
▁2003	-9820
▁2005	-9821
▁Cuba	-9822
▁Make	-9823
▁Yama	-9824
▁bond	-9825
▁chef	-9826
▁frag	-9827
▁gran	-9828
▁hell	-9829
▁pean	-9830
▁pups	-9831
▁wake	-9832
anguin	-9833
escent	-9834
funded	-9835
oyasan	-9836
tribes	-9837
ushdie	-9838
▁11%."	-9839
▁29-31	-9840
▁Great	-9841
▁Johnn	-9842
▁Padam	-9843
▁Ratti	-9844
▁chron	-9845
▁goals	-9846
▁lists	-9847
▁scram	-9848
Iranian	-9849
henomen	-9850
product	-9851
▁Beight	-9852
▁Cronus	-9853
▁Johnny	-9854
▁Karach	-9855
▁bonded	-9856
▁evenly	-9857
▁medals	-9858
▁oldest	-9859
▁peanut	-9860
▁possib	-9861
▁revers	-9862
▁savior	-9863
▁sodium	-9864
▁starch	-9865
anguinis	-9866
astatals	-9867
centered	-9868
henomena	-9869
ologists	-9870
ttention	-9871
▁Defence	-9872
▁Gleizes	-9873
▁Karachi	-9874
▁Reflect	-9875
▁Rushdie	-9876
▁Samsung	-9877
▁chakram	-9878
▁enabled	-9879
▁fragile	-9880
▁overuse	-9881
▁stabbed	-9882
▁warlike	-9883
andescent	-9884
ideoyasan	-9885
vereignty	-9886
▁Beighton	-9887
▁articles	-9888
▁dynamics	-9889
▁opposing	-9890
▁ordinary	-9891
▁organize	-9892
▁packaged	-9893
▁passages	-9894
▁passagew	-9895
▁patching	-9896
▁patience	-9897
▁periodic	-9898
▁politely	-9899
693	-9900
ARC	-9901
Send	-9902
bani	-9903
erks	-9904
ganj	-9905
hell	-9906
icks	-9907
ilet	-9908
urks	-9909
▁Acc	-9910
▁Tao	-9911
Every	-9912
▁	-9913
e	-9914
a	-9915
t	-9916
i	-9917
n	-9918
o	-9919
r	-9920
s	-9921
h	-9922
l	-9923
d	-9924
c	-9925
u	-9926
m	-9927
f	-9928
p	-9929
g	-9930
y	-9931
,	-9932
"	-9933
b	-9934
w	-9935
v	-9936
.	-9937
k	-9938
T	-9939
S	-9940
I	-9941
A	-9942
C	-9943
1	-9944
0	-9945
-	-9946
2	-9947
M	-9948
B	-9949
P	-9950
(	-9951
)	-9952
x	-9953
9	-9954
'	-9955
D	-9956
G	-9957
R	-9958
E	-9959
j	-9960
H	-9961
q	-9962
L	-9963
N	-9964
K	-9965
O	-9966
5	-9967
F	-9968
4	-9969
7	-9970
3	-9971
W	-9972
z	-9973
6	-9974
8	-9975
J	-9976
U	-9977
V	-9978
;	-9979
%	-9980
:	-9981
Y	-9982
/	-9983
Z	-9984
°	-9985
$	-9986
&	-9987
?	-9988
Q	-9989
X	-9990
–	-9991
!	-9992
[	-9993
]	-9994
=	-9995
₹	-9996
